{
  "version": "1.0",
  "truncation": null,
  "padding": null,
  "added_tokens": [
    {
      "id": 0,
      "content": "[PAD]",
      "single_word": false,
      "lstrip": false,
      "rstrip": false,
      "normalized": false,
      "special": true
    },
    {
      "id": 1,
      "content": "[UNK]",
      "single_word": false,
      "lstrip": false,
      "rstrip": false,
      "normalized": false,
      "special": true
    },
    {
      "id": 2,
      "content": "[SOS]",
      "single_word": false,
      "lstrip": false,
      "rstrip": false,
      "normalized": false,
      "special": true
    },
    {
      "id": 3,
      "content": "[EOS]",
      "single_word": false,
      "lstrip": false,
      "rstrip": false,
      "normalized": false,
      "special": true
    }
  ],
  "normalizer": {
    "type": "NFKC"
  },
  "pre_tokenizer": {
    "type": "ByteLevel",
    "add_prefix_space": false,
    "trim_offsets": true,
    "use_regex": true
  },
  "post_processor": null,
  "decoder": {
    "type": "ByteLevel",
    "add_prefix_space": true,
    "trim_offsets": true,
    "use_regex": true
  },
  "model": {
    "type": "BPE",
    "dropout": null,
    "unk_token": "[UNK]",
    "continuing_subword_prefix": null,
    "end_of_word_suffix": null,
    "fuse_unk": false,
    "byte_fallback": false,
    "ignore_merges": false,
    "vocab": {
      "[PAD]": 0,
      "[UNK]": 1,
      "[SOS]": 2,
      "[EOS]": 3,
      "!": 4,
      "\"": 5,
      "#": 6,
      "$": 7,
      "%": 8,
      "&": 9,
      "'": 10,
      "(": 11,
      ")": 12,
      "*": 13,
      "+": 14,
      ",": 15,
      "-": 16,
      ".": 17,
      "/": 18,
      "0": 19,
      "1": 20,
      "2": 21,
      "3": 22,
      "4": 23,
      "5": 24,
      "6": 25,
      "7": 26,
      "8": 27,
      "9": 28,
      ":": 29,
      ";": 30,
      "<": 31,
      "=": 32,
      ">": 33,
      "?": 34,
      "@": 35,
      "A": 36,
      "B": 37,
      "C": 38,
      "D": 39,
      "E": 40,
      "F": 41,
      "G": 42,
      "H": 43,
      "I": 44,
      "J": 45,
      "K": 46,
      "L": 47,
      "M": 48,
      "N": 49,
      "O": 50,
      "P": 51,
      "Q": 52,
      "R": 53,
      "S": 54,
      "T": 55,
      "U": 56,
      "V": 57,
      "W": 58,
      "X": 59,
      "Y": 60,
      "Z": 61,
      "[": 62,
      "\\": 63,
      "]": 64,
      "^": 65,
      "_": 66,
      "`": 67,
      "a": 68,
      "b": 69,
      "c": 70,
      "d": 71,
      "e": 72,
      "f": 73,
      "g": 74,
      "h": 75,
      "i": 76,
      "j": 77,
      "k": 78,
      "l": 79,
      "m": 80,
      "n": 81,
      "o": 82,
      "p": 83,
      "q": 84,
      "r": 85,
      "s": 86,
      "t": 87,
      "u": 88,
      "v": 89,
      "w": 90,
      "x": 91,
      "y": 92,
      "z": 93,
      "{": 94,
      "}": 95,
      "~": 96,
      "¡": 97,
      "¢": 98,
      "£": 99,
      "¤": 100,
      "¥": 101,
      "¦": 102,
      "§": 103,
      "¨": 104,
      "©": 105,
      "ª": 106,
      "«": 107,
      "¬": 108,
      "®": 109,
      "¯": 110,
      "°": 111,
      "±": 112,
      "²": 113,
      "³": 114,
      "´": 115,
      "µ": 116,
      "¶": 117,
      "·": 118,
      "¸": 119,
      "¹": 120,
      "º": 121,
      "»": 122,
      "¼": 123,
      "½": 124,
      "¾": 125,
      "¿": 126,
      "Â": 127,
      "Ã": 128,
      "Ä": 129,
      "Å": 130,
      "Æ": 131,
      "Ç": 132,
      "È": 133,
      "É": 134,
      "Ê": 135,
      "Ë": 136,
      "Ì": 137,
      "Î": 138,
      "Ï": 139,
      "Ð": 140,
      "Ñ": 141,
      "Ò": 142,
      "Ô": 143,
      "Õ": 144,
      "Ö": 145,
      "×": 146,
      "Ø": 147,
      "Ù": 148,
      "Ú": 149,
      "Û": 150,
      "à": 151,
      "á": 152,
      "â": 153,
      "ã": 154,
      "ä": 155,
      "å": 156,
      "æ": 157,
      "ç": 158,
      "è": 159,
      "é": 160,
      "ê": 161,
      "ë": 162,
      "ì": 163,
      "í": 164,
      "ï": 165,
      "ð": 166,
      "Ġ": 167,
      "Ģ": 168,
      "ģ": 169,
      "Ĥ": 170,
      "ĥ": 171,
      "Ħ": 172,
      "ħ": 173,
      "Ĩ": 174,
      "ĩ": 175,
      "Ī": 176,
      "ī": 177,
      "Ĭ": 178,
      "ĭ": 179,
      "Į": 180,
      "į": 181,
      "İ": 182,
      "ı": 183,
      "Ĳ": 184,
      "ĳ": 185,
      "Ĵ": 186,
      "ĵ": 187,
      "Ķ": 188,
      "ķ": 189,
      "ĸ": 190,
      "Ĺ": 191,
      "ĺ": 192,
      "Ļ": 193,
      "ļ": 194,
      "Ľ": 195,
      "ľ": 196,
      "Ŀ": 197,
      "ŀ": 198,
      "Ł": 199,
      "ł": 200,
      "Ń": 201,
      "es": 202,
      "Ġd": 203,
      "on": 204,
      "Ġt": 205,
      "en": 206,
      "Ġa": 207,
      "in": 208,
      "Ã©": 209,
      "er": 210,
      "Ġl": 211,
      "Ġp": 212,
      "ti": 213,
      "Ġs": 214,
      "re": 215,
      "Ġc": 216,
      "an": 217,
      "ou": 218,
      "Ġth": 219,
      "is": 220,
      "Ġde": 221,
      "or": 222,
      "it": 223,
      "ent": 224,
      "tion": 225,
      "Ġthe": 226,
      "Ġm": 227,
      "ar": 228,
      "al": 229,
      "Ġf": 230,
      "qu": 231,
      "Ġe": 232,
      "Ġo": 233,
      "at": 234,
      "ro": 235,
      "le": 236,
      "Ġin": 237,
      "Ġb": 238,
      "Ġw": 239,
      "ation": 240,
      "om": 241,
      "Ġn": 242,
      "Ġof": 243,
      "ur": 244,
      "Ġan": 245,
      "ic": 246,
      "un": 247,
      "ed": 248,
      "il": 249,
      "Ġla": 250,
      "ment": 251,
      "as": 252,
      "ing": 253,
      "el": 254,
      "Ġto": 255,
      "Ġr": 256,
      "Ġh": 257,
      "Ġqu": 258,
      "Ġand": 259,
      "our": 260,
      "us": 261,
      "ĠÃ": 262,
      "Ġet": 263,
      "Ġle": 264,
      "Ġv": 265,
      "te": 266,
      "ĠC": 267,
      "ce": 268,
      "Ġre": 269,
      "Ġdes": 270,
      "ra": 271,
      "ve": 272,
      "Ġcon": 273,
      "Ġg": 274,
      "Ġles": 275,
      "et": 276,
      "ir": 277,
      "ant": 278,
      "si": 279,
      "Ġpro": 280,
      "ĠÃł": 281,
      "Ġen": 282,
      "Ġun": 283,
      "ch": 284,
      "ri": 285,
      "est": 286,
      "ol": 287,
      "ec": 288,
      "ut": 289,
      "Ã¨": 290,
      "Ġpar": 291,
      "me": 292,
      "Ġcom": 293,
      "id": 294,
      "Ġon": 295,
      "ad": 296,
      "ul": 297,
      "Ġy": 298,
      "pp": 299,
      "se": 300,
      "ĠS": 301,
      "ans": 302,
      "ot": 303,
      "Ġdu": 304,
      "ig": 305,
      "Ġ1": 306,
      "Ġfor": 307,
      "ter": 308,
      "Ġ(": 309,
      "ĠI": 310,
      "Ã©s": 311,
      "im": 312,
      "ous": 313,
      "ux": 314,
      "ĠA": 315,
      "âĢ": 316,
      "Ġ2": 317,
      "ta": 318,
      "ĠÃ©": 319,
      "he": 320,
      "ĠP": 321,
      "ver": 322,
      "ci": 323,
      "ag": 324,
      "Ġj": 325,
      "00": 326,
      "ire": 327,
      "res": 328,
      "ĠM": 329,
      "..": 330,
      "os": 331,
      "ac": 332,
      "ort": 333,
      "Ġbe": 334,
      "ie": 335,
      "Ġque": 336,
      "Ġis": 337,
      "Ġpour": 338,
      "ab": 339,
      "ers": 340,
      "ne": 341,
      "Ġsu": 342,
      "ĠdÃ©": 343,
      "and": 344,
      "ff": 345,
      "ay": 346,
      "Ġthat": 347,
      "âĢĻ": 348,
      "que": 349,
      "ow": 350,
      "am": 351,
      "ais": 352,
      "tr": 353,
      "Ġex": 354,
      "Ġpl": 355,
      "end": 356,
      "ĠT": 357,
      "ion": 358,
      "ly": 359,
      "Ġpr": 360,
      "ations": 361,
      "Ġas": 362,
      "Ġyou": 363,
      "Ġwh": 364,
      "em": 365,
      "out": 366,
      "Ġne": 367,
      "ĠD": 368,
      "Ġdans": 369,
      "Ġau": 370,
      "Ġch": 371,
      "op": 372,
      "Ġal": 373,
      "ont": 374,
      "ure": 375,
      "Ġpas": 376,
      "ate": 377,
      "ith": 378,
      "ill": 379,
      "Ġsur": 380,
      "ĠR": 381,
      "Ġit": 382,
      "ess": 383,
      "Ġac": 384,
      "od": 385,
      "ĠL": 386,
      "ĠE": 387,
      "Ġor": 388,
      "uc": 389,
      "tÃ©": 390,
      "sion": 391,
      "Ġest": 392,
      "bl": 393,
      "ere": 394,
      "ĠrÃ©": 395,
      "Ġwith": 396,
      "Ġune": 397,
      "th": 398,
      "Ġse": 399,
      "ts": 400,
      "ĠB": 401,
      "itÃ©": 402,
      "ĠN": 403,
      "'s": 404,
      "ain": 405,
      "Ã©e": 406,
      "Ġfa": 407,
      "um": 408,
      "pl": 409,
      "omm": 410,
      "Ã©r": 411,
      "Ġqui": 412,
      "The": 413,
      "ement": 414,
      "ist": 415,
      "ance": 416,
      "Ġme": 417,
      "ati": 418,
      "di": 419,
      "oc": 420,
      "ĠG": 421,
      "ĠF": 422,
      "tions": 423,
      "tu": 424,
      "tic": 425,
      "ell": 426,
      "st": 427,
      "Ġnot": 428,
      "Ġcomp": 429,
      "tre": 430,
      "ity": 431,
      "Ġare": 432,
      "if": 433,
      "ence": 434,
      "Ġ200": 435,
      "orm": 436,
      "Ġat": 437,
      "iv": 438,
      "au": 439,
      "oun": 440,
      "Ġpe": 441,
      "Ġapp": 442,
      "ld": 443,
      "Ġ?": 444,
      "ons": 445,
      "Ġtr": 446,
      "urs": 447,
      "ien": 448,
      "Ġres": 449,
      "ue": 450,
      "Ġmo": 451,
      "imp": 452,
      "Ġby": 453,
      "Ġso": 454,
      "Ġha": 455,
      "iti": 456,
      "ap": 457,
      "Ãª": 458,
      "vel": 459,
      "Ġtra": 460,
      "ard": 461,
      "ke": 462,
      "ces": 463,
      "Ġce": 464,
      "...": 465,
      "Ġser": 466,
      "igh": 467,
      "ĠH": 468,
      "onn": 469,
      "Ã©es": 470,
      "Ġou": 471,
      "Ġcomm": 472,
      "ang": 473,
      "ale": 474,
      "ven": 475,
      "Ã¨re": 476,
      "anad": 477,
      "ments": 478,
      "Ġdo": 479,
      "Ġ-": 480,
      "Ġad": 481,
      "age": 482,
      "ai": 483,
      "ble": 484,
      "ĠO": 485,
      "ĠJ": 486,
      "pe": 487,
      "ord": 488,
      "form": 489,
      "cl": 490,
      "Ġsh": 491,
      "Ġwas": 492,
      "able": 493,
      "Ġplus": 494,
      "ond": 495,
      "rom": 496,
      "Ġthis": 497,
      "ques": 498,
      "Ġsa": 499,
      "ine": 500,
      "elle": 501,
      "Ġaux": 502,
      "og": 503,
      "ies": 504,
      "Ġinter": 505,
      "Ġdis": 506,
      "Ġk": 507,
      "Ġ19": 508,
      "ait": 509,
      "all": 510,
      "ould": 511,
      "Ġav": 512,
      "tat": 513,
      "pr": 514,
      "ust": 515,
      "Ġimp": 516,
      "Ġhe": 517,
      "Ġper": 518,
      "ique": 519,
      "ĠW": 520,
      "Ġhave": 521,
      "Un": 522,
      "duc": 523,
      "ct": 524,
      "ice": 525,
      "ĠComm": 526,
      "pec": 527,
      "ud": 528,
      "Ġall": 529,
      "Ġcons": 530,
      "ber": 531,
      "app": 532,
      "Ġ3": 533,
      "ten": 534,
      "ĠCanad": 535,
      "Ġave": 536,
      "air": 537,
      "Ã©c": 538,
      "ite": 539,
      "ational": 540,
      "Ġfrom": 541,
      "Ġwe": 542,
      "ich": 543,
      "aire": 544,
      "ission": 545,
      "aux": 546,
      "up": 547,
      "oir": 548,
      "Ġdi": 549,
      "Ġvous": 550,
      "mes": 551,
      "ge": 552,
      "oin": 553,
      "rou": 554,
      "Ġar": 555,
      "der": 556,
      "tif": 557,
      "Th": 558,
      "Ġcont": 559,
      "Ġsont": 560,
      "Ġfin": 561,
      "ants": 562,
      "Ġje": 563,
      "ex": 564,
      "Je": 565,
      "ens": 566,
      "une": 567,
      "oi": 568,
      "Ã¨s": 569,
      "min": 570,
      "Ġil": 571,
      "ors": 572,
      "Ġavec": 573,
      "Ġaut": 574,
      "'t": 575,
      "Le": 576,
      "gra": 577,
      "ves": 578,
      "uro": 579,
      "ubl": 580,
      "ll": 581,
      "rÃ©": 582,
      "ction": 583,
      "ign": 584,
      "ore": 585,
      "per": 586,
      "Ġgo": 587,
      "ier": 588,
      "oy": 589,
      "Ã©n": 590,
      "Ġacc": 591,
      "port": 592,
      "Ġent": 593,
      "ĠÂ": 594,
      "ise": 595,
      "ĠIn": 596,
      "Ġst": 597,
      "Ġcl": 598,
      "Ġus": 599,
      "ork": 600,
      "ome": 601,
      "Ġmar": 602,
      "Ġparti": 603,
      "ures": 604,
      "lement": 605,
      "ient": 606,
      "Ġrec": 607,
      "Ġwill": 608,
      "ille": 609,
      "Ġag": 610,
      "ication": 611,
      "gram": 612,
      "ear": 613,
      "Il": 614,
      "Ġli": 615,
      "Ġsec": 616,
      "Ġma": 617,
      "Ġman": 618,
      "its": 619,
      "tive": 620,
      "Ġab": 621,
      "ide": 622,
      "ision": 623,
      "bre": 624,
      "Ġco": 625,
      "ern": 626,
      "Ġcan": 627,
      "ated": 628,
      "ult": 629,
      "ight": 630,
      "Ġserv": 631,
      "ose": 632,
      "ary": 633,
      "gan": 634,
      "av": 635,
      "ĠCanada": 636,
      "ong": 637,
      "Ġpol": 638,
      "gh": 639,
      "Ġpers": 640,
      "ace": 641,
      "ins": 642,
      "par": 643,
      "Ġte": 644,
      "Ġpre": 645,
      "ette": 646,
      "de": 647,
      "In": 648,
      "Ġeff": 649,
      "Ġam": 650,
      "aut": 651,
      "aires": 652,
      "pÃ©": 653,
      "so": 654,
      "ui": 655,
      "Ġ:": 656,
      "ase": 657,
      ").": 658,
      "Ġprov": 659,
      "ĠV": 660,
      "Ġont": 661,
      "Ã©g": 662,
      "You": 663,
      "ours": 664,
      "ĠÃª": 665,
      "Ġno": 666,
      "cial": 667,
      "ici": 668,
      "Ġrel": 669,
      "ĠÃ©tÃ©": 670,
      "ices": 671,
      "Ġwhich": 672,
      "ph": 673,
      "iz": 674,
      "ays": 675,
      "les": 676,
      "Ġconc": 677,
      "Les": 678,
      "che": 679,
      "ther": 680,
      "one": 681,
      "__": 682,
      "Ġhas": 683,
      "Ġ4": 684,
      "01": 685,
      "Ġ5": 686,
      "Ã´": 687,
      "ĠprÃ©": 688,
      "ĠCon": 689,
      "Ġ\"": 690,
      "Ġout": 691,
      "du": 692,
      "rib": 693,
      "jec": 694,
      "are": 695,
      "ys": 696,
      "Ġoff": 697,
      "ish": 698,
      "tiv": 699,
      "Ġta": 700,
      "ents": 701,
      "Ġreg": 702,
      "Ġter": 703,
      "ia": 704,
      "Ġnous": 705,
      "ally": 706,
      "La": 707,
      "ois": 708,
      "ted": 709,
      "ob": 710,
      "osi": 711,
      "til": 712,
      "Ã©l": 713,
      "itÃ©s": 714,
      "Ġprop": 715,
      "Ġproc": 716,
      "Ġprogram": 717,
      "oll": 718,
      "Ġpubl": 719,
      "lle": 720,
      "ouv": 721,
      "tes": 722,
      "ĠÃªtre": 723,
      "Ġyour": 724,
      "Ġins": 725,
      "Ãł": 726,
      "ĠUn": 727,
      "ari": 728,
      "Ġtrans": 729,
      "nement": 730,
      "Ã©sent": 731,
      "Ġpos": 732,
      "her": 733,
      "ail": 734,
      "),": 735,
      "ps": 736,
      "now": 737,
      "Ġtout": 738,
      "iss": 739,
      "Ġob": 740,
      "cip": 741,
      "Ġ!": 742,
      "con": 743,
      "ution": 744,
      "Ã©ri": 745,
      "Ġits": 746,
      "Ġmon": 747,
      "Ġcommun": 748,
      "Ġdire": 749,
      "Ġmin": 750,
      "tain": 751,
      "ĠK": 752,
      "Ġpri": 753,
      "Ġsi": 754,
      "Ġfait": 755,
      "ĠRe": 756,
      "formation": 757,
      "titu": 758,
      "Ġ199": 759,
      "Ġem": 760,
      "ĠÃ©ta": 761,
      "ĠCommission": 762,
      "ress": 763,
      "ĠCh": 764,
      "ach": 765,
      "Ġtheir": 766,
      "use": 767,
      "elles": 768,
      "Ġsub": 769,
      "tem": 770,
      "Ġdem": 771,
      "ities": 772,
      "It": 773,
      "Wh": 774,
      "king": 775,
      "Ġson": 776,
      "Ġintern": 777,
      "ouver": 778,
      "Ġtu": 779,
      "ive": 780,
      "ass": 781,
      "Ã©d": 782,
      "Ġstr": 783,
      "Ġdiff": 784,
      "els": 785,
      "jet": 786,
      "Ġknow": 787,
      "Ġgr": 788,
      "Ġdon": 789,
      "Ġwork": 790,
      "isation": 791,
      "Ġup": 792,
      "Ġbeen": 793,
      "Ġdev": 794,
      "ues": 795,
      "200": 796,
      "Ġentre": 797,
      "enti": 798,
      "Ġbut": 799,
      "velop": 800,
      "fin": 801,
      "Ġint": 802,
      "Ġcomme": 803,
      "Ġthere": 804,
      "Ã¨me": 805,
      "Ġass": 806,
      "Ġsupp": 807,
      "Ġorgan": 808,
      "Ġcette": 809,
      "Ġcar": 810,
      "olog": 811,
      "En": 812,
      "Ġwere": 813,
      "Ġ6": 814,
      "Ġses": 815,
      "Ġmais": 816,
      "rit": 817,
      "Ġtrav": 818,
      "Ġmy": 819,
      "ĠâĢ": 820,
      "Ġinc": 821,
      "ime": 822,
      "Ġmem": 823,
      "iques": 824,
      "Ġdro": 825,
      "Ġind": 826,
      "vers": 827,
      "ĠPro": 828,
      "ĠPar": 829,
      "Ġpart": 830,
      "ound": 831,
      "erv": 832,
      "bil": 833,
      "ative": 834,
      "Ġone": 835,
      "Ġces": 836,
      "On": 837,
      "ticle": 838,
      "Ġform": 839,
      "Ã§": 840,
      "Ġother": 841,
      "Ġthey": 842,
      "ense": 843,
      "iÃ¨re": 844,
      "urope": 845,
      "ile": 846,
      "ĠrÃ©g": 847,
      "ok": 848,
      "sid": 849,
      "Ġrequ": 850,
      "Ġconf": 851,
      "ĠdÃ©c": 852,
      "Ġbien": 853,
      "Ġimport": 854,
      "ese": 855,
      "cc": 856,
      "Ġmod": 857,
      "ande": 858,
      "vir": 859,
      "ip": 860,
      "estion": 861,
      "Ġnon": 862,
      "Ġproduc": 863,
      "Ġver": 864,
      "Ġleur": 865,
      "ww": 866,
      "Ġany": 867,
      "ric": 868,
      "Ġalso": 869,
      "cep": 870,
      "An": 871,
      "Ġwould": 872,
      "Ġservices": 873,
      "Ġrem": 874,
      "chn": 875,
      "viron": 876,
      "Ġsou": 877,
      "Ġcer": 878,
      "ind": 879,
      "Ġrapp": 880,
      "Ġabout": 881,
      "ost": 882,
      "act": 883,
      "Ġmore": 884,
      "tis": 885,
      "Ġwho": 886,
      "val": 887,
      "conom": 888,
      "Ġnom": 889,
      "Ġfaire": 890,
      "ack": 891,
      "anc": 892,
      "clud": 893,
      "Ġes": 894,
      "'m": 895,
      "ions": 896,
      "ĠDe": 897,
      "oint": 898,
      "util": 899,
      "teur": 900,
      "ĠrÃ©s": 901,
      "vent": 902,
      "Qu": 903,
      "ount": 904,
      "Ġ7": 905,
      "tats": 906,
      "ĠU": 907,
      "Ġpeut": 908,
      "Ġyear": 909,
      "Ġann": 910,
      "eral": 911,
      "'re": 912,
      "opp": 913,
      "Ãªme": 914,
      "ales": 915,
      "rie": 916,
      "reat": 917,
      "Ġwhat": 918,
      "Ġtou": 919,
      "ussi": 920,
      "tern": 921,
      "ĠgÃ©n": 922,
      "Ġappro": 923,
      "Ġ9": 924,
      "uis": 925,
      "uation": 926,
      "Ġdevelop": 927,
      "ĠThe": 928,
      "gal": 929,
      "vern": 930,
      "ils": 931,
      "ourn": 932,
      "Ã©ta": 933,
      "Ġshould": 934,
      "Ġpays": 935,
      "Ġ8": 936,
      "Ġmain": 937,
      "Ġappl": 938,
      "Ġmes": 939,
      "Ã¨res": 940,
      "ĠprÃ©sent": 941,
      "ĠÃ§": 942,
      "ical": 943,
      "Ġhad": 944,
      "ĠÃ§a": 945,
      "Ġresp": 946,
      "Ġactiv": 947,
      "Ġperm": 948,
      "ĠEurope": 949,
      "Ġdonn": 950,
      "Ġunder": 951,
      "Ġop": 952,
      "lec": 953,
      "ouve": 954,
      "ian": 955,
      "Ġcap": 956,
      "fer": 957,
      "Ġvis": 958,
      "ild": 959,
      "Ġcas": 960,
      "We": 961,
      "Ġsta": 962,
      "Ãī": 963,
      "cher": 964,
      "ks": 965,
      "ĠÂ«": 966,
      "Ġneed": 967,
      "ticul": 968,
      "arg": 969,
      "Ġconcern": 970,
      "Ġgu": 971,
      "Ġsy": 972,
      "Ġsit": 973,
      "Ġro": 974,
      "ited": 975,
      "ade": 976,
      "dition": 977,
      "Tu": 978,
      "Ġtime": 979,
      "Ġhis": 980,
      "enc": 981,
      "ial": 982,
      "Ġve": 983,
      "Ġdisp": 984,
      "ploy": 985,
      "Ġpersonn": 986,
      "Ġdeux": 987,
      "Ã®": 988,
      "ann": 989,
      "Ġjus": 990,
      "ep": 991,
      "Ġpres": 992,
      "Ġsome": 993,
      "vention": 994,
      "acc": 995,
      "Ġgrou": 996,
      "ulation": 997,
      "ises": 998,
      "This": 999,
      "Ġph": 1000,
      "ty": 1001,
      "ry": 1002,
      "Ġtechn": 1003,
      "Ã»": 1004,
      "Ġparticul": 1005,
      "sible": 1006,
      "endre": 1007,
      "ory": 1008,
      "Ġbet": 1009,
      "Ġpublic": 1010,
      "ĠLe": 1011,
      "ov": 1012,
      "we": 1013,
      "Ġ201": 1014,
      "ante": 1015,
      "Ġnew": 1016,
      "ene": 1017,
      "ast": 1018,
      "ree": 1019,
      "Ġif": 1020,
      "ĠÃī": 1021,
      "Ġlike": 1022,
      "Ġprin": 1023,
      "Ġmemb": 1024,
      "velopp": 1025,
      "Ġmat": 1026,
      "Ġthan": 1027,
      "Ġcent": 1028,
      "ences": 1029,
      "Ġexp": 1030,
      "Ġinternational": 1031,
      "Ġdoc": 1032,
      "He": 1033,
      "Ġreport": 1034,
      "ug": 1035,
      "Ġinclud": 1036,
      "ings": 1037,
      "osition": 1038,
      "Ġpeu": 1039,
      "otre": 1040,
      "art": 1041,
      "Ġ10": 1042,
      "Ġsign": 1043,
      "ause": 1044,
      "rait": 1045,
      "Ġmay": 1046,
      "Ġinformation": 1047,
      "ages": 1048,
      "Ġover": 1049,
      "ĠgÃ©nÃ©r": 1050,
      "ON": 1051,
      "seil": 1052,
      "Ġrapport": 1053,
      "Ġvie": 1054,
      "Ġmet": 1055,
      "Ã¨g": 1056,
      "Ġget": 1057,
      "Ġour": 1058,
      "olution": 1059,
      "Ġlo": 1060,
      "Ġtous": 1061,
      "Ġher": 1062,
      "Ġfe": 1063,
      "Ġjust": 1064,
      "Ã¢": 1065,
      "Ġthem": 1066,
      "ĠAn": 1067,
      "Ġcol": 1068,
      "Ġspec": 1069,
      "ances": 1070,
      "Ġhum": 1071,
      "Ġcor": 1072,
      "____": 1073,
      "ied": 1074,
      "Ġbas": 1075,
      "onne": 1076,
      "ources": 1077,
      "gr": 1078,
      "ak": 1079,
      "Ġprocess": 1080,
      "ely": 1081,
      "19": 1082,
      "ah": 1083,
      "Ġchang": 1084,
      "Ġim": 1085,
      "ĠdÃ©velopp": 1086,
      "ner": 1087,
      "ple": 1088,
      "Ġeuro": 1089,
      "Ġdur": 1090,
      "Ġeffec": 1091,
      "Ġcontin": 1092,
      "Ġinv": 1093,
      "Ġtem": 1094,
      "ood": 1095,
      "Ġlong": 1096,
      "Ġnational": 1097,
      "Ġaff": 1098,
      "istr": 1099,
      "ĠCom": 1100,
      "Ġhim": 1101,
      "truc": 1102,
      "ications": 1103,
      "irst": 1104,
      "Ġrep": 1105,
      "ĠNo": 1106,
      "ĠSec": 1107,
      "ink": 1108,
      "Ġdisc": 1109,
      "Ġhere": 1110,
      "ystem": 1111,
      "rough": 1112,
      "ĠAr": 1113,
      "Ġsp": 1114,
      "Ã¹": 1115,
      "Ġdid": 1116,
      "ĠY": 1117,
      "Ġche": 1118,
      "Ġcro": 1119,
      "Ġloc": 1120,
      "Ġprodu": 1121,
      "very": 1122,
      "Ġright": 1123,
      "ĠmÃªme": 1124,
      "Ġaussi": 1125,
      "aient": 1126,
      "Ġthese": 1127,
      "ame": 1128,
      "Ġsoci": 1129,
      "ating": 1130,
      "ual": 1131,
      "und": 1132,
      "ris": 1133,
      "ES": 1134,
      "ĠNations": 1135,
      "insi": 1136,
      "abil": 1137,
      "Ġenc": 1138,
      "ĠTh": 1139,
      "raph": 1140,
      "Ġinto": 1141,
      "ĠSt": 1142,
      "alth": 1143,
      "ates": 1144,
      "Ġpoliti": 1145,
      "Vous": 1146,
      "Ġsuis": 1147,
      "aine": 1148,
      "ets": 1149,
      "ĠConseil": 1150,
      "Ġprof": 1151,
      "led": 1152,
      "ren": 1153,
      "lÃ©": 1154,
      "Ġnum": 1155,
      "tique": 1156,
      "rac": 1157,
      "ms": 1158,
      "ument": 1159,
      "Ġcour": 1160,
      "Ġsuch": 1161,
      "Ġinf": 1162,
      "Ġdec": 1163,
      "Ġprote": 1164,
      "vernment": 1165,
      "ting": 1166,
      "Ġpropos": 1167,
      "Ġtw": 1168,
      "Ġmen": 1169,
      "sem": 1170,
      "ss": 1171,
      "Ġprojet": 1172,
      "ture": 1173,
      "oth": 1174,
      "ode": 1175,
      "Ġbl": 1176,
      "ounc": 1177,
      "Ġplan": 1178,
      "Ġmill": 1179,
      "ĠdÃ©p": 1180,
      "Ġutil": 1181,
      "ople": 1182,
      "Ġonly": 1183,
      "Ġwhen": 1184,
      "ran": 1185,
      "ature": 1186,
      "ries": 1187,
      "Ġquel": 1188,
      "Ġplace": 1189,
      "agement": 1190,
      "Ġvotre": 1191,
      "Ġsc": 1192,
      "igne": 1193,
      "tates": 1194,
      "Ġprom": 1195,
      "Ġparticip": 1196,
      "Ġwant": 1197,
      "Ġrev": 1198,
      "ĠeuropÃ©": 1199,
      "Ã©t": 1200,
      "ĠLa": 1201,
      "Ġpass": 1202,
      "itte": 1203,
      "Ġrespec": 1204,
      "prÃ¨s": 1205,
      "Ġlui": 1206,
      "ĠEn": 1207,
      "own": 1208,
      "vid": 1209,
      "Ġprem": 1210,
      "Ġindi": 1211,
      "ente": 1212,
      "Ġbec": 1213,
      "ieu": 1214,
      "fore": 1215,
      "isse": 1216,
      "Ġainsi": 1217,
      "oire": 1218,
      "Ġgouver": 1219,
      "ough": 1220,
      "Ġtravail": 1221,
      "Ġexam": 1222,
      "Ġfam": 1223,
      "'ll": 1224,
      "Ġ%": 1225,
      "ollow": 1226,
      "Ġtro": 1227,
      "orte": 1228,
      "ĠdÃ©veloppement": 1229,
      "ource": 1230,
      "com": 1231,
      "Ġfinan": 1232,
      "get": 1233,
      "arm": 1234,
      "enne": 1235,
      "Ġconn": 1236,
      "Ġsupport": 1237,
      "And": 1238,
      "atives": 1239,
      "eneral": 1240,
      "lev": 1241,
      "Ġleurs": 1242,
      "CE": 1243,
      "Ġshall": 1244,
      "Ġpoint": 1245,
      "Ġsuiv": 1246,
      "ĠEuropean": 1247,
      "Ġ12": 1248,
      "bles": 1249,
      "Ġvo": 1250,
      "old": 1251,
      "Ġcontrib": 1252,
      "Ġqual": 1253,
      "ĠÂ»": 1254,
      "Ġhel": 1255,
      "Et": 1256,
      "omme": 1257,
      "tim": 1258,
      "for": 1259,
      "Ġmust": 1260,
      "000": 1261,
      "Ġnombre": 1262,
      "Ġrest": 1263,
      "Ġfl": 1264,
      "ĠÃ©tait": 1265,
      "Ġsystem": 1266,
      "Ġaccord": 1267,
      "ister": 1268,
      "Ġelle": 1269,
      "Ġcould": 1270,
      "Ġris": 1271,
      "Pour": 1272,
      "ĠÃ©gal": 1273,
      "Ġfac": 1274,
      "iens": 1275,
      "tit": 1276,
      "als": 1277,
      "ables": 1278,
      "wn": 1279,
      "Ġsee": 1280,
      "Ġnow": 1281,
      "try": 1282,
      "Ġuse": 1283,
      "Ġparag": 1284,
      "ĠcrÃ©": 1285,
      "Ġ0": 1286,
      "ib": 1287,
      "Ġprovid": 1288,
      "Ġquestion": 1289,
      "ights": 1290,
      "ines": 1291,
      "ards": 1292,
      "endant": 1293,
      "Ġpeople": 1294,
      "iste": 1295,
      "ats": 1296,
      "ĠJe": 1297,
      "entif": 1298,
      "TI": 1299,
      "Ġprogramme": 1300,
      "iser": 1301,
      "entre": 1302,
      "Ġ15": 1303,
      "ween": 1304,
      "Ġimportant": 1305,
      "Ġfem": 1306,
      "Ġdoit": 1307,
      "Ġenviron": 1308,
      "ouncil": 1309,
      "As": 1310,
      "ars": 1311,
      "mer": 1312,
      "Ġthrough": 1313,
      "Ġtwo": 1314,
      "Ġid": 1315,
      "Ġfollow": 1316,
      "iqu": 1317,
      "Ġservice": 1318,
      "Ã©ration": 1319,
      "Ġgood": 1320,
      "Ġiss": 1321,
      "ittee": 1322,
      "ĠMin": 1323,
      "ĠÃ©galement": 1324,
      "Ġdirec": 1325,
      "ater": 1326,
      "Ġemploy": 1327,
      "ft": 1328,
      "teurs": 1329,
      "ĠoÃ¹": 1330,
      "Ġwhere": 1331,
      "ret": 1332,
      "ub": 1333,
      "Ġhow": 1334,
      "ave": 1335,
      "iter": 1336,
      "What": 1337,
      "Ġren": 1338,
      "ix": 1339,
      "Ġsous": 1340,
      "Ġorganis": 1341,
      "iers": 1342,
      "Ġdom": 1343,
      "Ġbetween": 1344,
      "ject": 1345,
      "ĠStates": 1346,
      "....": 1347,
      "ule": 1348,
      "Ġans": 1349,
      "Ġfon": 1350,
      "ident": 1351,
      "soci": 1352,
      "Ġdist": 1353,
      "Ġmade": 1354,
      "eng": 1355,
      "Ġagain": 1356,
      "vre": 1357,
      "tt": 1358,
      "Ġwell": 1359,
      "Ġthose": 1360,
      "Ã©cur": 1361,
      "Ġrepr": 1362,
      "Ġrequire": 1363,
      "ick": 1364,
      "antÃ©": 1365,
      "Ġvi": 1366,
      "red": 1367,
      "ĠÃītats": 1368,
      "Ġ$": 1369,
      "Ġsyst": 1370,
      "Ġprincip": 1371,
      "Ġrecomm": 1372,
      "ince": 1373,
      "ural": 1374,
      "Ġmont": 1375,
      "Ġfond": 1376,
      "sibil": 1377,
      "Ġdep": 1378,
      "ĠCouncil": 1379,
      "autres": 1380,
      "rent": 1381,
      "tal": 1382,
      "âĢĿ": 1383,
      "hor": 1384,
      "Ġshe": 1385,
      "ditions": 1386,
      "rÃª": 1387,
      "Ġ18": 1388,
      "EC": 1389,
      "Ġdemand": 1390,
      "Ã©p": 1391,
      "ole": 1392,
      "Ã©m": 1393,
      "Ġmembres": 1394,
      "ific": 1395,
      "fter": 1396,
      "Ġfirst": 1397,
      "ĠintÃ©": 1398,
      "Ġ20": 1399,
      "ivers": 1400,
      "ru": 1401,
      "AR": 1402,
      "Ġdit": 1403,
      "10": 1404,
      "man": 1405,
      "Ġcontre": 1406,
      "Ġautres": 1407,
      "ĠrÃ¨g": 1408,
      "oration": 1409,
      "Ġpop": 1410,
      "Ġmarch": 1411,
      "Ġyears": 1412,
      "tiques": 1413,
      "Ġ[": 1414,
      "Ġtake": 1415,
      "onde": 1416,
      "ĠMar": 1417,
      "Ġty": 1418,
      "isions": 1419,
      "ulture": 1420,
      "ĠHe": 1421,
      "AN": 1422,
      "ĠUnited": 1423,
      "ĠCommun": 1424,
      "tra": 1425,
      "tice": 1426,
      "orld": 1427,
      "Nous": 1428,
      "Ġgot": 1429,
      "Ġstu": 1430,
      "Ã©qu": 1431,
      "Ġadop": 1432,
      "Ġcontr": 1433,
      "Ãªtre": 1434,
      "Ġdroits": 1435,
      "enn": 1436,
      "Â»": 1437,
      "Ġcount": 1438,
      "lish": 1439,
      "ĠrÃ©p": 1440,
      "Ġdevelopment": 1441,
      "Ġsans": 1442,
      "Ġexpl": 1443,
      "Ã©curitÃ©": 1444,
      "ĠspÃ©": 1445,
      "era": 1446,
      "be": 1447,
      "tor": 1448,
      "lect": 1449,
      "ties": 1450,
      "Ġhigh": 1451,
      "Ã©tÃ©": 1452,
      "hing": 1453,
      "oul": 1454,
      "ved": 1455,
      "Ġdont": 1456,
      "ital": 1457,
      "Ġcertain": 1458,
      "part": 1459,
      "ife": 1460,
      "ĠReg": 1461,
      "ination": 1462,
      "Ġbes": 1463,
      "Ġcri": 1464,
      "ER": 1465,
      "cri": 1466,
      "Ġavant": 1467,
      "Ġten": 1468,
      "ange": 1469,
      "Ġva": 1470,
      "Ġcours": 1471,
      "Ġsoit": 1472,
      "Ġmake": 1473,
      "iment": 1474,
      "Ġobjec": 1475,
      "Ce": 1476,
      "Ġback": 1477,
      "Ġprotection": 1478,
      "voir": 1479,
      "Ġlim": 1480,
      "Ġtemps": 1481,
      "Ġcal": 1482,
      "Ġiniti": 1483,
      "land": 1484,
      "Ġrais": 1485,
      "ĠCommittee": 1486,
      "Ġmoi": 1487,
      "Ġ.": 1488,
      "uments": 1489,
      "Ġref": 1490,
      "Ã´le": 1491,
      "Ġvol": 1492,
      "ĠtrÃ¨s": 1493,
      "Ġfra": 1494,
      "ements": 1495,
      "earch": 1496,
      "Ġsocial": 1497,
      "oute": 1498,
      "Ġend": 1499,
      "tement": 1500,
      "Ġgl": 1501,
      "tical": 1502,
      "sider": 1503,
      "Ġcoop": 1504,
      "Ġbesoin": 1505,
      "ath": 1506,
      "Ġ11": 1507,
      "Ġpermet": 1508,
      "ateurs": 1509,
      "ez": 1510,
      "Ġsais": 1511,
      "mber": 1512,
      "elf": 1513,
      "nex": 1514,
      "urn": 1515,
      "Ġmeet": 1516,
      "ency": 1517,
      "ends": 1518,
      "ĠsÃ©curitÃ©": 1519,
      "De": 1520,
      "tifs": 1521,
      "Ġsol": 1522,
      "Ġmal": 1523,
      "Ġval": 1524,
      "Ġfourn": 1525,
      "Ġincre": 1526,
      "erg": 1527,
      "Ġinform": 1528,
      "Ġrecher": 1529,
      "anti": 1530,
      "Ġcountries": 1531,
      "Ġthink": 1532,
      "www": 1533,
      "ful": 1534,
      "arge": 1535,
      "Ġlors": 1536,
      "Ġpossible": 1537,
      "pes": 1538,
      "Ġconditions": 1539,
      "Ġrece": 1540,
      "EN": 1541,
      "Ġinstitu": 1542,
      "az": 1543,
      "amp": 1544,
      "adre": 1545,
      "pri": 1546,
      "Ġhuman": 1547,
      "clus": 1548,
      "tention": 1549,
      "Ġgrand": 1550,
      "Ġmark": 1551,
      "iew": 1552,
      "article": 1553,
      "Ġdemande": 1554,
      "ationale": 1555,
      "eu": 1556,
      "No": 1557,
      "estions": 1558,
      "Par": 1559,
      "Dans": 1560,
      "Ġpolic": 1561,
      "atÃ©g": 1562,
      "Ġ2006": 1563,
      "ĠâĢľ": 1564,
      "Ġpouv": 1565,
      "Ġgouvernement": 1566,
      "Ġnotre": 1567,
      "Ã©cess": 1568,
      "ĠÃ©conom": 1569,
      "Ġvery": 1570,
      "erc": 1571,
      "Ġ2005": 1572,
      "Elle": 1573,
      "ession": 1574,
      "ĠMem": 1575,
      "ving": 1576,
      "ĠsantÃ©": 1577,
      "ĠIntern": 1578,
      "iod": 1579,
      "Ġsem": 1580,
      "ĠnÃ©cess": 1581,
      "Ġdroit": 1582,
      "Ġcompl": 1583,
      "Ġpay": 1584,
      "ton": 1585,
      "Ġoper": 1586,
      "ĠWh": 1587,
      "Ġpartie": 1588,
      "Ġju": 1589,
      "Ã©ment": 1590,
      "Ġcel": 1591,
      "Ġpersonnes": 1592,
      "Ġ13": 1593,
      "Si": 1594,
      "Ġkm": 1595,
      "Ġocc": 1596,
      "Mais": 1597,
      "12": 1598,
      "Al": 1599,
      "atif": 1600,
      "Ġsituation": 1601,
      "Ġ14": 1602,
      "ĠGo": 1603,
      "Ġbel": 1604,
      "Ġess": 1605,
      "Ã´t": 1606,
      "Ġcommer": 1607,
      "Ġchild": 1608,
      "hip": 1609,
      "Ġevery": 1610,
      "'ve": 1611,
      "valuation": 1612,
      "tives": 1613,
      "row": 1614,
      "Ġ30": 1615,
      "That": 1616,
      "Ġens": 1617,
      "Ġcoun": 1618,
      "Ġmati": 1619,
      "Ġset": 1620,
      "ĠAg": 1621,
      "Ġcomple": 1622,
      "ĠreprÃ©sent": 1623,
      "ches": 1624,
      "orts": 1625,
      "Ġway": 1626,
      "Ġconsider": 1627,
      "Ġtoute": 1628,
      "Ġret": 1629,
      "Ġfonction": 1630,
      "ĠAl": 1631,
      "But": 1632,
      "Ġdern": 1633,
      "entr": 1634,
      "Ġmil": 1635,
      "Ã©v": 1636,
      "Ġenf": 1637,
      "ever": 1638,
      "Ġnouve": 1639,
      "--": 1640,
      "ĠÂ°": 1641,
      "ĠMr": 1642,
      "ata": 1643,
      "Ġactu": 1644,
      "Ġcou": 1645,
      "ily": 1646,
      "Ġ2004": 1647,
      "work": 1648,
      "Ġcanad": 1649,
      "Ġlevel": 1650,
      "Ġmeas": 1651,
      "Ġmoins": 1652,
      "Ġexper": 1653,
      "Ġnive": 1654,
      "Ġquestions": 1655,
      "Ġregard": 1656,
      "Ġ198": 1657,
      "omen": 1658,
      "ateg": 1659,
      "IN": 1660,
      "ducation": 1661,
      "termin": 1662,
      "other": 1663,
      "action": 1664,
      "Ġprogrammes": 1665,
      "Ġmoy": 1666,
      "Ġsus": 1667,
      "ious": 1668,
      "clar": 1669,
      "Ġatt": 1670,
      "Ġke": 1671,
      "Ãĥ": 1672,
      "ĠrÃ©gion": 1673,
      "ĠNe": 1674,
      "sions": 1675,
      "ĠCanadian": 1676,
      "ĠdonnÃ©es": 1677,
      "Ġple": 1678,
      "onna": 1679,
      "ĠdiffÃ©r": 1680,
      "Ġmesures": 1681,
      "uer": 1682,
      "Ġutilis": 1683,
      "Ġused": 1684,
      "antes": 1685,
      "ĠgÃ©nÃ©ral": 1686,
      "Ġjour": 1687,
      "ĠAs": 1688,
      "ĠprÃ©c": 1689,
      "Ġobs": 1690,
      "io": 1691,
      "Ġ17": 1692,
      "ellement": 1693,
      "arly": 1694,
      "ety": 1695,
      "Ġimplement": 1696,
      "agn": 1697,
      "Ãªte": 1698,
      "Ġadmin": 1699,
      "Ġafin": 1700,
      "Ġ16": 1701,
      "rap": 1702,
      "Ġgestion": 1703,
      "duction": 1704,
      "ool": 1705,
      "Ġnumber": 1706,
      "day": 1707,
      "Ã¨mes": 1708,
      "aque": 1709,
      "Ġtechnolog": 1710,
      "Ġfois": 1711,
      "Ġpeuvent": 1712,
      "Ġavait": 1713,
      "Ġpriv": 1714,
      "eur": 1715,
      "ook": 1716,
      "Ġ2007": 1717,
      "Ġadd": 1718,
      "elon": 1719,
      "uch": 1720,
      "ositions": 1721,
      "ĠlÃł": 1722,
      "aiss": 1723,
      "201": 1724,
      "UR": 1725,
      "Re": 1726,
      "Ġviol": 1727,
      "Ġmise": 1728,
      "ĠsÃ©": 1729,
      "Ġdown": 1730,
      "Ġmost": 1731,
      "conomic": 1732,
      "ĠprÃ©v": 1733,
      "ior": 1734,
      "ĠdÃ©l": 1735,
      "ateur": 1736,
      "Ġbr": 1737,
      "Ġdocument": 1738,
      "iness": 1739,
      "entes": 1740,
      "tle": 1741,
      "Ġeng": 1742,
      "ption": 1743,
      "Ġdoes": 1744,
      "Ġbeing": 1745,
      "urity": 1746,
      "tant": 1747,
      "ased": 1748,
      "ization": 1749,
      "ites": 1750,
      "Ġavoir": 1751,
      "Oh": 1752,
      "Ġcadre": 1753,
      "isl": 1754,
      "ffic": 1755,
      "//": 1756,
      "Ġtoutes": 1757,
      "mp": 1758,
      "ules": 1759,
      "ivent": 1760,
      "Ġvari": 1761,
      "ute": 1762,
      "Ġsaid": 1763,
      "Ġafter": 1764,
      "Ġgra": 1765,
      "Ġauthor": 1766,
      "Ġrespon": 1767,
      "ition": 1768,
      "Ġcompte": 1769,
      "Ġencore": 1770,
      "Ġprior": 1771,
      "How": 1772,
      "If": 1773,
      "uses": 1774,
      "ttp": 1775,
      "Ġress": 1776,
      "ablish": 1777,
      "ouvel": 1778,
      "Ġsay": 1779,
      "11": 1780,
      "ible": 1781,
      "Ġhealth": 1782,
      "vis": 1783,
      "Ġlaw": 1784,
      "Ġprobl": 1785,
      "Ġsera": 1786,
      "utions": 1787,
      "Ġcur": 1788,
      "Ġhelp": 1789,
      "Ġtit": 1790,
      "Ġbud": 1791,
      "There": 1792,
      "Ġaw": 1793,
      "Ãĩ": 1794,
      "Ġconsid": 1795,
      "ĠEx": 1796,
      "Ġmodif": 1797,
      "Ġtrain": 1798,
      "ĠÃ©c": 1799,
      "ler": 1800,
      "Ġentrepr": 1801,
      "Ġautre": 1802,
      "rol": 1803,
      "Ch": 1804,
      "Ġproduits": 1805,
      "ĠsystÃ¨me": 1806,
      "fÃ©r": 1807,
      "ĠactivitÃ©s": 1808,
      "Ġproduction": 1809,
      "ieux": 1810,
      "Ġgen": 1811,
      "por": 1812,
      "://": 1813,
      "resent": 1814,
      "Ġestablish": 1815,
      "Ġlet": 1816,
      "ĠaprÃ¨s": 1817,
      "Ġdiffer": 1818,
      "Ġtrois": 1819,
      "aines": 1820,
      "Ġminist": 1821,
      "ĠdÃ©b": 1822,
      "Ġincluding": 1823,
      "alis": 1824,
      "Ġmainten": 1825,
      "Ġrespons": 1826,
      "blig": 1827,
      "Ġils": 1828,
      "ĠmÃ©": 1829,
      "ĠWe": 1830,
      "Ġbefore": 1831,
      "eration": 1832,
      "Ġ,": 1833,
      "ples": 1834,
      "Ġpolitique": 1835,
      "urer": 1836,
      "amment": 1837,
      "Ã©ra": 1838,
      "Ġwithin": 1839,
      "ĠÃ©tabl": 1840,
      "Ġthen": 1841,
      "Ġorder": 1842,
      "tains": 1843,
      "lection": 1844,
      "des": 1845,
      ".\"": 1846,
      "sident": 1847,
      "IS": 1848,
      "Ġveux": 1849,
      "iÃ¨me": 1850,
      "vous": 1851,
      "Ġ2002": 1852,
      "ĠQu": 1853,
      "Ġconstitu": 1854,
      "ull": 1855,
      "Ġcoll": 1856,
      "Ġbase": 1857,
      "They": 1858,
      "Ġfut": 1859,
      "Ġdra": 1860,
      "ĠOn": 1861,
      "ĠmatiÃ¨re": 1862,
      "Ġrecherche": 1863,
      "onc": 1864,
      "tin": 1865,
      "Ġmom": 1866,
      "ĠlÃ©g": 1867,
      "ower": 1868,
      "ĠConvention": 1869,
      "ĠDire": 1870,
      "ank": 1871,
      "ili": 1872,
      "ĠdÃ©f": 1873,
      "For": 1874,
      "Ġcommunaut": 1875,
      "Ġmaj": 1876,
      "appl": 1877,
      "Ġport": 1878,
      "go": 1879,
      "quoi": 1880,
      "ĠProgram": 1881,
      "oh": 1882,
      "Ġ2003": 1883,
      "ouse": 1884,
      "Ġcomb": 1885,
      "Ġliv": 1886,
      "Ġbecause": 1887,
      "Ġlit": 1888,
      "Ġmonde": 1889,
      "ĠIl": 1890,
      "Ġici": 1891,
      "ters": 1892,
      "Ġimm": 1893,
      "ather": 1894,
      "So": 1895,
      "mental": 1896,
      "iel": 1897,
      "Ġeven": 1898,
      "Ġlang": 1899,
      "Ġsecond": 1900,
      "Ġtotal": 1901,
      "usiness": 1902,
      "Ġbu": 1903,
      "ized": 1904,
      "ommes": 1905,
      "Ġnorm": 1906,
      "uss": 1907,
      "ning": 1908,
      "Ġ25": 1909,
      "uit": 1910,
      "Â©": 1911,
      "Ġsm": 1912,
      "ĠLes": 1913,
      "Ġcapac": 1914,
      "Ġvra": 1915,
      "Ġequ": 1916,
      "Ġeach": 1917,
      "Ġsame": 1918,
      "Ġgreat": 1919,
      "Ġfund": 1920,
      "Ã©tait": 1921,
      "ĠdÃ©m": 1922,
      "Ġrights": 1923,
      "Source": 1924,
      "Ġtrava": 1925,
      "ĠComitÃ©": 1926,
      "Ġgoing": 1927,
      "Ġ2000": 1928,
      "lles": 1929,
      "istance": 1930,
      "Ġmany": 1931,
      "mbre": 1932,
      "iÃ©": 1933,
      "Ġfact": 1934,
      "Ġexem": 1935,
      "raphe": 1936,
      "Ġfer": 1937,
      "information": 1938,
      "ĠGrou": 1939,
      "Ġpra": 1940,
      "ĠrÃ©sul": 1941,
      "Une": 1942,
      "Ġrespect": 1943,
      "Ġfollowing": 1944,
      "Ġcre": 1945,
      "Ġfr": 1946,
      "Ġsal": 1947,
      "Ġstand": 1948,
      "ĠServ": 1949,
      "ody": 1950,
      "itation": 1951,
      "ock": 1952,
      "Ġparties": 1953,
      "Ġ'": 1954,
      "Ġnature": 1955,
      "ublic": 1956,
      "Ġfinanci": 1957,
      "irc": 1958,
      "Ġdate": 1959,
      "intÃ©": 1960,
      "Ġz": 1961,
      "Ġfais": 1962,
      "Ġtransport": 1963,
      "Ġhand": 1964,
      "Ã§on": 1965,
      "auc": 1966,
      "ĠpÃ©ri": 1967,
      "ains": 1968,
      "ras": 1969,
      "Ġfind": 1970,
      "Ġopp": 1971,
      "Ġaur": 1972,
      "ĠRes": 1973,
      "Ġanal": 1974,
      "Ġsite": 1975,
      "________": 1976,
      "tari": 1977,
      "Ġagainst": 1978,
      "Åĵ": 1979,
      "Ġfemmes": 1980,
      "Ġworld": 1981,
      "Ġsti": 1982,
      "ĠAd": 1983,
      "Ġoffici": 1984,
      "ĠPl": 1985,
      "Ġconcernant": 1986,
      "omet": 1987,
      "Ġperson": 1988,
      "Ġcanadien": 1989,
      "isme": 1990,
      "istration": 1991,
      "Ġboth": 1992,
      "Ġbro": 1993,
      "Ġdou": 1994,
      "ĠYou": 1995,
      "venir": 1996,
      "Ġagre": 1997,
      "OM": 1998,
      "Ġassoci": 1999,
      "Ġniveau": 2000,
      "Ġdoivent": 2001,
      "ĠeuropÃ©enne": 2002,
      "Ġperiod": 2003,
      "Ġarri": 2004,
      "jours": 2005,
      "ĠÃ©l": 2006,
      "Ġaid": 2007,
      "illes": 2008,
      "Ġsci": 2009,
      "Ġappropri": 2010,
      "Ġindivid": 2011,
      "ger": 2012,
      "Ġcet": 2013,
      "orth": 2014,
      "Ġcome": 2015,
      "Ġpris": 2016,
      "Ġcase": 2017,
      "Ġenfants": 2018,
      "Ġprovide": 2019,
      "AC": 2020,
      "Com": 2021,
      "Ġconform": 2022,
      "Ġcle": 2023,
      "ken": 2024,
      "aÃ®": 2025,
      "inter": 2026,
      "Ġstat": 2027,
      "Ġsession": 2028,
      "Ġ2001": 2029,
      "Ġaddition": 2030,
      "Ġmed": 2031,
      "gment": 2032,
      "Ġsch": 2033,
      "ĠMember": 2034,
      "eah": 2035,
      "Ġpresent": 2036,
      "alitÃ©": 2037,
      "Ar": 2038,
      "ÃĢ": 2039,
      "Ġactivities": 2040,
      ".,": 2041,
      "Ġlife": 2042,
      "ĠQ": 2043,
      "Ġpo": 2044,
      "truction": 2045,
      "mit": 2046,
      "20": 2047,
      "Ġprofession": 2048,
      "ÂŃ": 2049,
      "igin": 2050,
      "Ġ2008": 2051,
      "sive": 2052,
      "OR": 2053,
      "Ġlead": 2054,
      "ĠÃ©tu": 2055,
      "issions": 2056,
      "ĠâĢĵ": 2057,
      "ady": 2058,
      "ended": 2059,
      "Ġown": 2060,
      "Ġavail": 2061,
      "ĠState": 2062,
      "Ġcountry": 2063,
      "II": 2064,
      "ĠMan": 2065,
      "Ġrend": 2066,
      "jour": 2067,
      "ĠAf": 2068,
      "ders": 2069,
      "Ġparagraphe": 2070,
      "ying": 2071,
      "ests": 2072,
      "rim": 2073,
      "Ġconta": 2074,
      "occ": 2075,
      "Ġtal": 2076,
      "13": 2077,
      "li": 2078,
      "Ġtoi": 2079,
      "nes": 2080,
      "ĠCour": 2081,
      "Ġmarket": 2082,
      "Ġvue": 2083,
      "iÃ¨res": 2084,
      "ĠFr": 2085,
      "xim": 2086,
      "ared": 2087,
      "Ġautor": 2088,
      "urther": 2089,
      "Ġoblig": 2090,
      "Ġpopulation": 2091,
      "Ġpur": 2092,
      "Ġstruc": 2093,
      "Ġduring": 2094,
      "Ġfacil": 2095,
      "aff": 2096,
      "Ġgonna": 2097,
      "irm": 2098,
      "Ġvers": 2099,
      "thing": 2100,
      "Ġinst": 2101,
      "Ġeffic": 2102,
      "ĠFor": 2103,
      "rain": 2104,
      "Ġmis": 2105,
      "Pro": 2106,
      "Ġnos": 2107,
      "199": 2108,
      "lectr": 2109,
      "Ġciv": 2110,
      "ĠArticle": 2111,
      "Ġthree": 2112,
      "Des": 2113,
      "Ġday": 2114,
      "asse": 2115,
      "Ġterrit": 2116,
      "ulations": 2117,
      "Ġlook": 2118,
      "Ġgiv": 2119,
      "ĠdÃ©clar": 2120,
      "rgan": 2121,
      "cto": 2122,
      "ium": 2123,
      "Ġchaque": 2124,
      "Ġtype": 2125,
      "Ġdonc": 2126,
      "Ġtoujours": 2127,
      "atis": 2128,
      "Ġach": 2129,
      "Ġtax": 2130,
      "Ġregion": 2131,
      "Ġfil": 2132,
      "ĠIs": 2133,
      "Ġfaut": 2134,
      "ĠNew": 2135,
      "aim": 2136,
      "Ġconsult": 2137,
      "ĠdÃ©s": 2138,
      "Ġjur": 2139,
      "ograph": 2140,
      "ict": 2141,
      "15": 2142,
      "Ġavez": 2143,
      "Ġresearch": 2144,
      "Ġwomen": 2145,
      "Ġton": 2146,
      "ĠdÃ©j": 2147,
      "Ġmoment": 2148,
      "ential": 2149,
      "Ġdata": 2150,
      "tionn": 2151,
      "Ġjam": 2152,
      "ox": 2153,
      "Ġpu": 2154,
      "Ġdirect": 2155,
      "ism": 2156,
      "Ġvoir": 2157,
      "oup": 2158,
      "Ġpolicy": 2159,
      "Ġbon": 2160,
      "ĠprocÃ©d": 2161,
      "xt": 2162,
      "AL": 2163,
      "IC": 2164,
      "Ġidentif": 2165,
      "reg": 2166,
      "Ġchose": 2167,
      "Ġpersonne": 2168,
      "Ġgar": 2169,
      "ĠmÃ©d": 2170,
      "Well": 2171,
      "Ġdepuis": 2172,
      "Ġefforts": 2173,
      "ieve": 2174,
      "All": 2175,
      "Ġnotamment": 2176,
      "Ġrefer": 2177,
      "Ġmajor": 2178,
      "Ġgovernment": 2179,
      "Ġrepresent": 2180,
      "ĠdÃ©cision": 2181,
      "ĠSo": 2182,
      "Ġfound": 2183,
      "Ġlieu": 2184,
      "Ġsex": 2185,
      "ĠtÃ©l": 2186,
      "Ġprocessus": 2187,
      "anger": 2188,
      "ĠAct": 2189,
      "Ġsim": 2190,
      "rais": 2191,
      "Ġimpro": 2192,
      "Ġapplication": 2193,
      "abit": 2194,
      "Ġcare": 2195,
      "Ils": 2196,
      "Ġexist": 2197,
      "Ġpeux": 2198,
      "Ġca": 2199,
      "utes": 2200,
      "TION": 2201,
      "ires": 2202,
      "Ġtell": 2203,
      "Ġprovided": 2204,
      "Ġrien": 2205,
      "ression": 2206,
      "Ġmuch": 2207,
      "bour": 2208,
      "dy": 2209,
      "tien": 2210,
      "issement": 2211,
      "Ġaccep": 2212,
      "30": 2213,
      "Ġformation": 2214,
      "Ġcall": 2215,
      "Ġcontinu": 2216,
      "ureau": 2217,
      "ote": 2218,
      "Ġbusiness": 2219,
      "Ã©ro": 2220,
      "cer": 2221,
      "Ġmul": 2222,
      "uel": 2223,
      "oard": 2224,
      "Ġ24": 2225,
      "ĠPres": 2226,
      "Ġressources": 2227,
      "Ã©ch": 2228,
      "Ġtrait": 2229,
      "Ġlast": 2230,
      "oud": 2231,
      "Ġrad": 2232,
      "She": 2233,
      "Ġpot": 2234,
      "oses": 2235,
      "Ġpolitiques": 2236,
      "omething": 2237,
      "Ġavons": 2238,
      "Ġlist": 2239,
      "Ġeu": 2240,
      "ĠTr": 2241,
      "Ġel": 2242,
      "Ġmeasures": 2243,
      "Ġavailable": 2244,
      "ieurs": 2245,
      "Ġsor": 2246,
      "aur": 2247,
      "cle": 2248,
      "ĠMon": 2249,
      "Ġproble": 2250,
      "enses": 2251,
      "rieur": 2252,
      "ck": 2253,
      "Ġpa": 2254,
      "ina": 2255,
      "Au": 2256,
      "Ġmanagement": 2257,
      "Ġlocal": 2258,
      "cif": 2259,
      "Ã¯": 2260,
      "Ġquoi": 2261,
      "Ġquand": 2262,
      "ĠrÃ¨glement": 2263,
      "ĠfaÃ§on": 2264,
      "Ġstill": 2265,
      "iller": 2266,
      "Cette": 2267,
      "Ġeconomic": 2268,
      "Ġven": 2269,
      "Ġmean": 2270,
      "ĠUnies": 2271,
      "Ġtoo": 2272,
      "Ġchildren": 2273,
      "Ġindic": 2274,
      "any": 2275,
      "Ġaccess": 2276,
      "ides": 2277,
      "Ġprendre": 2278,
      "Ġvais": 2279,
      "Ġ21": 2280,
      "urg": 2281,
      "ĠdÃ©jÃł": 2282,
      "pt": 2283,
      "lia": 2284,
      "enef": 2285,
      "ection": 2286,
      "la": 2287,
      "AT": 2288,
      "int": 2289,
      "ĠdÃ©fin": 2290,
      "ĠstratÃ©g": 2291,
      "IT": 2292,
      "Ġcollec": 2293,
      "Ġjou": 2294,
      "Ġhapp": 2295,
      "Ġcontra": 2296,
      "Ġbre": 2297,
      "ica": 2298,
      "raient": 2299,
      "Ġdoll": 2300,
      "Ġpoin": 2301,
      "ĠmarchÃ©": 2302,
      "ortun": 2303,
      "Ġhist": 2304,
      "igr": 2305,
      "Ġ31": 2306,
      "ĠÃ©qu": 2307,
      "Ġput": 2308,
      "Ġprac": 2309,
      "ouvelle": 2310,
      "Ġjamais": 2311,
      "Ġculture": 2312,
      "ror": 2313,
      "Ġjusqu": 2314,
      "kay": 2315,
      "Ġconv": 2316,
      "gn": 2317,
      "Ġcomment": 2318,
      "ize": 2319,
      "Ġchez": 2320,
      "Ġmondi": 2321,
      "omb": 2322,
      "Ġinstitutions": 2323,
      "Ã©f": 2324,
      "Ġmembers": 2325,
      "Ġ22": 2326,
      "Ġfinancial": 2327,
      "Ġcoord": 2328,
      "Ã©b": 2329,
      "Ġauc": 2330,
      "Ġpendant": 2331,
      "??": 2332,
      "ffice": 2333,
      "organ": 2334,
      "ird": 2335,
      "illeurs": 2336,
      "imin": 2337,
      "Ġcompr": 2338,
      "ĠspÃ©cial": 2339,
      "ĠGovernment": 2340,
      "Ġshow": 2341,
      "Ġbi": 2342,
      "Ġreal": 2343,
      "Ġensure": 2344,
      "Ġleg": 2345,
      "Ġtex": 2346,
      "oles": 2347,
      "Ġparagraph": 2348,
      "Ġrelations": 2349,
      "Ġ>": 2350,
      "ignements": 2351,
      "Ġconcer": 2352,
      "ect": 2353,
      "Ġdocuments": 2354,
      "inc": 2355,
      "the": 2356,
      "ield": 2357,
      "Ġstate": 2358,
      "Ġvale": 2359,
      "ĠInternational": 2360,
      "ness": 2361,
      "Ġclient": 2362,
      "Ġpuis": 2363,
      "dit": 2364,
      "Ġselon": 2365,
      "Ġsurve": 2366,
      "Ġrense": 2367,
      "Ġsavoir": 2368,
      "Ġdesign": 2369,
      "ĠIt": 2370,
      "Ġbudget": 2371,
      "outh": 2372,
      "ee": 2373,
      "ception": 2374,
      "ĠÃ©conomique": 2375,
      "14": 2376,
      "Ġinves": 2377,
      "ĠUnion": 2378,
      "'d": 2379,
      "Ġperform": 2380,
      "aucoup": 2381,
      "Ġcurrent": 2382,
      "lu": 2383,
      "ove": 2384,
      "ested": 2385,
      "Ġpersonnel": 2386,
      "ĠrÃ©sultats": 2387,
      "Ġwithout": 2388,
      "Ġallow": 2389,
      "erve": 2390,
      "ĠannÃ©es": 2391,
      "Ġposition": 2392,
      "Ġenti": 2393,
      "Ġgroupe": 2394,
      "sif": 2395,
      "50": 2396,
      "ether": 2397,
      "Ġsomething": 2398,
      "ecess": 2399,
      "bor": 2400,
      "Ġlic": 2401,
      "ĠÃ©ch": 2402,
      "liament": 2403,
      "tent": 2404,
      "Ã©rie": 2405,
      "aboration": 2406,
      "hic": 2407,
      "ĠZ": 2408,
      "ĠrÃ©un": 2409,
      "partment": 2410,
      "ĠPrÃ©": 2411,
      "yl": 2412,
      "Ġcher": 2413,
      "Ġinvol": 2414,
      "dic": 2415,
      "Ġsucc": 2416,
      "Ġalors": 2417,
      "sembl": 2418,
      "Ġlittle": 2419,
      "Ġapplic": 2420,
      "Ġglob": 2421,
      "Ġnever": 2422,
      "Ġsecteur": 2423,
      "ancement": 2424,
      "Ãĩa": 2425,
      "abilitÃ©": 2426,
      "ax": 2427,
      "erre": 2428,
      "pro": 2429,
      "ners": 2430,
      "Ġaction": 2431,
      "Ġmillion": 2432,
      "ĠpÃ©riode": 2433,
      "ension": 2434,
      "Ġissues": 2435,
      "Ġ23": 2436,
      "Ġreally": 2437,
      "ults": 2438,
      "ĠPol": 2439,
      "Ġoffer": 2440,
      "Ġaddress": 2441,
      "Union": 2442,
      "eau": 2443,
      "Ġdidn": 2444,
      "Ġmois": 2445,
      "ager": 2446,
      "ca": 2447,
      "Ġadv": 2448,
      "Ġview": 2449,
      "Ġdifferent": 2450,
      "Ġsubst": 2451,
      "Ġceux": 2452,
      "Ġ000": 2453,
      "ories": 2454,
      "cul": 2455,
      "Ġparticular": 2456,
      "Ġseu": 2457,
      "Ġdr": 2458,
      "isc": 2459,
      "Ġchange": 2460,
      "accord": 2461,
      "Ġparticipation": 2462,
      "ones": 2463,
      "Ġcompris": 2464,
      "AS": 2465,
      "abor": 2466,
      "gg": 2467,
      "Ġfun": 2468,
      "gation": 2469,
      "At": 2470,
      "Ġfix": 2471,
      "Ġnouveau": 2472,
      "Ġjuste": 2473,
      "unes": 2474,
      "Ġreven": 2475,
      "Ġmesure": 2476,
      "Ġresult": 2477,
      "Ġvoul": 2478,
      "mis": 2479,
      "Ġsection": 2480,
      "Ġbenef": 2481,
      "Ġgive": 2482,
      "Ġcontinue": 2483,
      "mar": 2484,
      "Ġtable": 2485,
      "ĠgÃ©nÃ©rale": 2486,
      "Ġthough": 2487,
      "ĠÃ©v": 2488,
      "Ġarea": 2489,
      "Ġfig": 2490,
      "Ex": 2491,
      "ĠpremiÃ¨re": 2492,
      "ope": 2493,
      "Ġreview": 2494,
      "agne": 2495,
      "ĠMinister": 2496,
      "ĠCl": 2497,
      "ason": 2498,
      "fois": 2499,
      "ĠCol": 2500,
      "ĠGeneral": 2501,
      "ĠCo": 2502,
      "Ġtant": 2503,
      "Ġmonth": 2504,
      "ately": 2505,
      "Ġmettre": 2506,
      "homme": 2507,
      "Ġplay": 2508,
      "Ġloi": 2509,
      "Ġcirc": 2510,
      "fÃ©rence": 2511,
      "Ġareas": 2512,
      "Ġdevrait": 2513,
      "ĠSh": 2514,
      "side": 2515,
      "uring": 2516,
      "ĠUN": 2517,
      "16": 2518,
      "Ġassess": 2519,
      "Ġdistrib": 2520,
      "uck": 2521,
      "Ġspecial": 2522,
      "cription": 2523,
      "Ġrelev": 2524,
      "Ġdivers": 2525,
      "ges": 2526,
      "cent": 2527,
      "kes": 2528,
      "vironnement": 2529,
      "gl": 2530,
      "Ġste": 2531,
      "Ġsaf": 2532,
      "to": 2533,
      "derst": 2534,
      "moi": 2535,
      "Ġbeaucoup": 2536,
      "ĠdÃ©termin": 2537,
      "Ġ1999": 2538,
      "Ġcharg": 2539,
      "Ġfav": 2540,
      "Ġdecision": 2541,
      "Ġproject": 2542,
      "Ne": 2543,
      "\".": 2544,
      "ĠâĢĶ": 2545,
      "Ġplusieurs": 2546,
      "Ġmus": 2547,
      "Ġbetter": 2548,
      "Ġmaintenant": 2549,
      "Ġinternationale": 2550,
      "Ġpat": 2551,
      "Ġwater": 2552,
      "onom": 2553,
      "ĠCommunity": 2554,
      "Ġdollars": 2555,
      "Ġnecess": 2556,
      "ĠbÃ©n": 2557,
      "Ġpeti": 2558,
      "mination": 2559,
      "oss": 2560,
      "Ġraison": 2561,
      "Ġwhile": 2562,
      "rem": 2563,
      "Ġsince": 2564,
      "Ġfurther": 2565,
      "lez": 2566,
      "Ġcela": 2567,
      "Ad": 2568,
      "Ġnet": 2569,
      "Ġrap": 2570,
      "Ġsimp": 2571,
      "bs": 2572,
      "iance": 2573,
      "Ã©lior": 2574,
      "hui": 2575,
      "Ġgrande": 2576,
      "aide": 2577,
      "Ġtri": 2578,
      "ĠcoÃ»": 2579,
      "Ġmand": 2580,
      "Ġpouvoir": 2581,
      "Ġrenseignements": 2582,
      "Ġ50": 2583,
      "ribun": 2584,
      "Ġ100": 2585,
      "Ġrecommand": 2586,
      "Ġpremier": 2587,
      "Ġlog": 2588,
      "ĠPresident": 2589,
      "18": 2590,
      "Ces": 2591,
      "esp": 2592,
      "Ġworking": 2593,
      "Ġmillions": 2594,
      "atisf": 2595,
      "erci": 2596,
      "Ġlarge": 2597,
      "Ġindust": 2598,
      "Ġprojets": 2599,
      "ploi": 2600,
      "........": 2601,
      "Ġpolice": 2602,
      "Ġprog": 2603,
      "bly": 2604,
      "ĠÃ©taient": 2605,
      "su": 2606,
      "ĠAm": 2607,
      "Ġexc": 2608,
      "Ġsignific": 2609,
      "Con": 2610,
      "Ġcontrol": 2611,
      "vely": 2612,
      "Ġdiffic": 2613,
      "uf": 2614,
      "Ġesp": 2615,
      "Ġprovin": 2616,
      "ĠTe": 2617,
      "Ġsix": 2618,
      "tir": 2619,
      "Ġtraining": 2620,
      "Ġmeeting": 2621,
      "ane": 2622,
      "Ġexig": 2623,
      "ĠqualitÃ©": 2624,
      "arn": 2625,
      "exam": 2626,
      "Ġgroup": 2627,
      "Ġproducts": 2628,
      "vez": 2629,
      "Ġquelque": 2630,
      "uman": 2631,
      "af": 2632,
      "ĠcontrÃ´le": 2633,
      "Ġsecurity": 2634,
      "Ġcertains": 2635,
      "autre": 2636,
      "UE": 2637,
      "Ġunderst": 2638,
      "istra": 2639,
      "Ġspecific": 2640,
      "otion": 2641,
      "Ġdiv": 2642,
      "ĠrÃ©pond": 2643,
      "orter": 2644,
      "tro": 2645,
      "Ġtitre": 2646,
      "Ġseulement": 2647,
      "ĠsÃ»": 2648,
      "Ġagric": 2649,
      "Ġvic": 2650,
      "ification": 2651,
      "ability": 2652,
      "Ġimplementation": 2653,
      "Ġopen": 2654,
      "Ġobserv": 2655,
      "ways": 2656,
      "Ġpossibil": 2657,
      "Ġcommunity": 2658,
      "tegr": 2659,
      "Ġsuff": 2660,
      "atory": 2661,
      "osed": 2662,
      "Ġexemple": 2663,
      "Ġtaux": 2664,
      "islation": 2665,
      "ĠRep": 2666,
      "Ã©rif": 2667,
      "Am": 2668,
      "Ġ/": 2669,
      "ĠÃªtes": 2670,
      "aces": 2671,
      "ID": 2672,
      "quent": 2673,
      "Ġstrateg": 2674,
      "Ã¨ne": 2675,
      "Ġproced": 2676,
      "rier": 2677,
      "ength": 2678,
      "Ġmilit": 2679,
      "Ġ197": 2680,
      "eter": 2681,
      "Ġencour": 2682,
      "Ġparten": 2683,
      "Ġtaken": 2684,
      "nov": 2685,
      "Ġmeans": 2686,
      "yant": 2687,
      "Ġrequired": 2688,
      "tie": 2689,
      "ouvelles": 2690,
      "Non": 2691,
      "ultural": 2692,
      "Ġcause": 2693,
      "ked": 2694,
      "table": 2695,
      "ĠIns": 2696,
      "Ġindividual": 2697,
      "Ġpati": 2698,
      "jects": 2699,
      "Ġ27": 2700,
      "Ġ...": 2701,
      "ĠGu": 2702,
      "Ġvos": 2703,
      "Ġcin": 2704,
      "Ġprix": 2705,
      "rique": 2706,
      "ĠDevelop": 2707,
      "ross": 2708,
      "Ġrenfor": 2709,
      "vement": 2710,
      "Ġentreprises": 2711,
      "Ġmort": 2712,
      "ĠÌ": 2713,
      "ĠCons": 2714,
      "ron": 2715,
      "Ġsujet": 2716,
      "Ġcentr": 2717,
      "Ġu": 2718,
      ");": 2719,
      "ĠNational": 2720,
      "Ãītat": 2721,
      "Ġspe": 2722,
      "Ġsitu": 2723,
      "rÃªt": 2724,
      "Ġpourrait": 2725,
      "ĠSecret": 2726,
      "ĠsociÃ©tÃ©": 2727,
      "Ġconfl": 2728,
      "ward": 2729,
      "oires": 2730,
      "oney": 2731,
      "ĠprÃ©sente": 2732,
      "oph": 2733,
      "Ġjud": 2734,
      "rÃ¨s": 2735,
      "Ġsen": 2736,
      "Ġestim": 2737,
      "ĠFrance": 2738,
      "AD": 2739,
      "bility": 2740,
      "Ã¡": 2741,
      "itical": 2742,
      "ĠFin": 2743,
      "tisse": 2744,
      "Ġ26": 2745,
      "ĠHealth": 2746,
      "Ġnouvelle": 2747,
      "To": 2748,
      "irl": 2749,
      "25": 2750,
      "Ġless": 2751,
      "ĠDE": 2752,
      "Ġarticle": 2753,
      "Ġdef": 2754,
      "ogn": 2755,
      "Ġwee": 2756,
      "jourd": 2757,
      "ots": 2758,
      "ĠfÃ©d": 2759,
      "Ã©di": 2760,
      "ederal": 2761,
      "Ġorganiz": 2762,
      "Ġresources": 2763,
      "ived": 2764,
      "Ġforce": 2765,
      "Ġsatisf": 2766,
      "istes": 2767,
      "quer": 2768,
      "Ã©valuation": 2769,
      "Ġmieux": 2770,
      "ĠmaniÃ¨re": 2771,
      "ĠEU": 2772,
      "Ġord": 2773,
      "17": 2774,
      "Ġface": 2775,
      "Ġfour": 2776,
      "Ġhead": 2777,
      "AP": 2778,
      "http": 2779,
      "Ã©rer": 2780,
      "ator": 2781,
      "Ġdispositions": 2782,
      "tario": 2783,
      "Ġorigin": 2784,
      "Ġ--": 2785,
      "Ġexamin": 2786,
      "time": 2787,
      "Ġgrow": 2788,
      "Ġpoints": 2789,
      "Â«": 2790,
      "Ġrelative": 2791,
      "RE": 2792,
      "Ġobten": 2793,
      "ĠreÃ§": 2794,
      "Ġanother": 2795,
      "resp": 2796,
      "Ġopportun": 2797,
      "ustry": 2798,
      "Ġwhy": 2799,
      "tivitÃ©": 2800,
      "Ġ28": 2801,
      "of": 2802,
      "Ġcand": 2803,
      "Ġrempl": 2804,
      "Ġhome": 2805,
      "Ġjours": 2806,
      "Ġfuture": 2807,
      "gin": 2808,
      "Ġi": 2809,
      "Ġcommercial": 2810,
      "Ġname": 2811,
      "omp": 2812,
      "Ġdomaine": 2813,
      "att": 2814,
      "wh": 2815,
      "itor": 2816,
      "ular": 2817,
      "ĠX": 2818,
      "tics": 2819,
      "Ġfri": 2820,
      "Ġatta": 2821,
      "ĠnÃ©g": 2822,
      "Ġcommit": 2823,
      "atic": 2824,
      "over": 2825,
      "sp": 2826,
      "Ġcommunication": 2827,
      "ĠTra": 2828,
      "application": 2829,
      "sh": 2830,
      "ume": 2831,
      "quÃ©": 2832,
      "Ġpap": 2833,
      "Åĵu": 2834,
      "way": 2835,
      "Ġtreat": 2836,
      "org": 2837,
      "Ġanti": 2838,
      "nexe": 2839,
      "Ġappel": 2840,
      "Ġchar": 2841,
      "aj": 2842,
      "ceed": 2843,
      "Ġneeds": 2844,
      "Is": 2845,
      "Ġbased": 2846,
      "Ġtour": 2847,
      "Ġseront": 2848,
      "ĠProgramme": 2849,
      "eux": 2850,
      "Ġsuite": 2851,
      "Ġsuper": 2852,
      "ĠPrÃ©sident": 2853,
      "Ġnouvelles": 2854,
      "Ġeffective": 2855,
      "Ġaim": 2856,
      "by": 2857,
      "ĠrÃ´le": 2858,
      "Ġbeh": 2859,
      "tained": 2860,
      "ront": 2861,
      "ending": 2862,
      "ĠCentre": 2863,
      "Ġappar": 2864,
      "Ġnecessary": 2865,
      "Ġaround": 2866,
      "Ġfre": 2867,
      "Ġgeneral": 2868,
      "ariat": 2869,
      "Ġgiven": 2870,
      "Ġill": 2871,
      "Ġcamp": 2872,
      "Ġhy": 2873,
      "ĠcoopÃ©ration": 2874,
      "Ġconst": 2875,
      "Ġpens": 2876,
      "Ġci": 2877,
      "Ġinstr": 2878,
      "ipe": 2879,
      "Ġanim": 2880,
      "Ġmess": 2881,
      "ĠPh": 2882,
      "Ġland": 2883,
      "ocra": 2884,
      "Ġunderstand": 2885,
      "toc": 2886,
      "rir": 2887,
      "ĠParliament": 2888,
      "ght": 2889,
      "Ġcelui": 2890,
      "ticles": 2891,
      "UN": 2892,
      "Ġparticulier": 2893,
      "ished": 2894,
      "ĠBr": 2895,
      "Ġtrouver": 2896,
      "Ġcourse": 2897,
      "Ġtest": 2898,
      "atique": 2899,
      "Ġpurp": 2900,
      "arl": 2901,
      "cember": 2902,
      "Ġsmall": 2903,
      "Ġcandid": 2904,
      "alement": 2905,
      "Ġamong": 2906,
      "odes": 2907,
      "Ġ29": 2908,
      "cembre": 2909,
      "lÃ©ment": 2910,
      "bilitÃ©": 2911,
      "Ġbasis": 2912,
      "Ġcop": 2913,
      "Ġinclude": 2914,
      "ĠLoi": 2915,
      "Ġserait": 2916,
      "ST": 2917,
      "ready": 2918,
      "Ġapproach": 2919,
      "och": 2920,
      "Ġschool": 2921,
      "atch": 2922,
      "Ġtim": 2923,
      "Ġbest": 2924,
      "pÃ©ri": 2925,
      "Ġold": 2926,
      "Ġbar": 2927,
      "uly": 2928,
      "Ġsector": 2929,
      "Ġminim": 2930,
      "Ġsk": 2931,
      "iture": 2932,
      "Ġabs": 2933,
      "Ġbuild": 2934,
      "Ġfamily": 2935,
      "quelle": 2936,
      "These": 2937,
      "Ġanalys": 2938,
      "Ġnote": 2939,
      "ĠmÃ©th": 2940,
      "ĠAnd": 2941,
      "Ġconte": 2942,
      "ĠAfric": 2943,
      "Ġproper": 2944,
      "Ġconcerne": 2945,
      "ĠSe": 2946,
      "iquer": 2947,
      "ords": 2948,
      "ĠRegulation": 2949,
      "ĠAmer": 2950,
      "Ġcover": 2951,
      "ĠCor": 2952,
      "ĠprÃ©s": 2953,
      "Ġaccount": 2954,
      "Mon": 2955,
      "Ġjourn": 2956,
      "Ġpartir": 2957,
      "urance": 2958,
      "utilisation": 2959,
      "ference": 2960,
      "Ġcrit": 2961,
      "ĠDevelopment": 2962,
      "avant": 2963,
      "ĠvÃ©rif": 2964,
      "aw": 2965,
      "Do": 2966,
      "Ġtrouv": 2967,
      "eff": 2968,
      "lectron": 2969,
      "ribunal": 2970,
      "Ġmor": 2971,
      "ĠAll": 2972,
      "iff": 2973,
      "Ġair": 2974,
      "usion": 2975,
      "Ġresults": 2976,
      "Ġlaquelle": 2977,
      "istre": 2978,
      "ĠSp": 2979,
      "sign": 2980,
      "Ġconse": 2981,
      "met": 2982,
      "Ġvu": 2983,
      "Ġsens": 2984,
      "Ġdefin": 2985,
      "taire": 2986,
      "ĠeuropÃ©en": 2987,
      "Ġsl": 2988,
      "Ġtrop": 2989,
      "Ã¨te": 2990,
      "ĠMay": 2991,
      "Ġ&": 2992,
      "ĠconsÃ©qu": 2993,
      "Ġcos": 2994,
      "Ġvraiment": 2995,
      "ĠbÃ©nÃ©f": 2996,
      "erman": 2997,
      "Ġresolution": 2998,
      "Europe": 2999,
      "Ġorganisations": 3000,
      "Ġpublique": 3001,
      "Tout": 3002,
      "ik": 3003,
      "Ġmeille": 3004,
      "Ġpense": 3005,
      "ĠJune": 3006,
      "Ġvoy": 3007,
      "Ġjeunes": 3008,
      "environnement": 3009,
      "ĠWhat": 3010,
      "ĠII": 3011,
      "sez": 3012,
      "Ġeducation": 3013,
      "EM": 3014,
      "SC": 3015,
      "Ġalready": 3016,
      "Ġcapital": 3017,
      "ctive": 3018,
      "Ġcr": 3019,
      "atre": 3020,
      "Ġ1998": 3021,
      "Yeah": 3022,
      "Ġtransfer": 3023,
      "ality": 3024,
      "Ġadministra": 3025,
      "âĻ": 3026,
      "respond": 3027,
      "Ġdoing": 3028,
      "ases": 3029,
      "Ġthing": 3030,
      "ĠDecember": 3031,
      "Ġphot": 3032,
      "alf": 3033,
      "euvre": 3034,
      "ĠTu": 3035,
      "Ġintro": 3036,
      "auv": 3037,
      "Ġaugment": 3038,
      "sembly": 3039,
      "Ġterror": 3040,
      "ationaux": 3041,
      "Ġviolence": 3042,
      "iver": 3043,
      "Ġarr": 3044,
      "vious": 3045,
      "amb": 3046,
      "Ġcompar": 3047,
      "ĠdonnÃ©": 3048,
      "Ġfull": 3049,
      "Ġpage": 3050,
      "rastruc": 3051,
      "Ġrelevant": 3052,
      "term": 3053,
      "ĠrÃ©solution": 3054,
      "ĠproblÃ¨mes": 3055,
      "nent": 3056,
      "view": 3057,
      "Ġunique": 3058,
      "illet": 3059,
      "prise": 3060,
      "urb": 3061,
      "semblÃ©e": 3062,
      "Ġdiscus": 3063,
      "pect": 3064,
      "Ġexerc": 3065,
      "Ġconten": 3066,
      "ze": 3067,
      "issance": 3068,
      "Ġconclus": 3069,
      "inf": 3070,
      "ĠconformÃ©ment": 3071,
      "oot": 3072,
      "ministration": 3073,
      "ĠApp": 3074,
      "Ġappropriate": 3075,
      "Ġenter": 3076,
      "Ġtoget": 3077,
      "ĠproblÃ¨me": 3078,
      "ĠprÃ©par": 3079,
      "Ġayant": 3080,
      "semble": 3081,
      "Ġrisk": 3082,
      "Ġplans": 3083,
      "Ġtogether": 3084,
      "alisation": 3085,
      "âĻª": 3086,
      "import": 3087,
      "Ġexample": 3088,
      "mework": 3089,
      "Ġrequirements": 3090,
      "ĠdÃ©cembre": 3091,
      "aint": 3092,
      "expl": 3093,
      "Mr": 3094,
      "Ġgroupes": 3095,
      "Ġquelques": 3096,
      "ider": 3097,
      "Ġjuin": 3098,
      "Ġdays": 3099,
      "Ġpolitical": 3100,
      "Ġmight": 3101,
      "Ġni": 3102,
      "nements": 3103,
      "iles": 3104,
      "Ġnext": 3105,
      "Ġlegal": 3106,
      "Ġ40": 3107,
      "Ġincrease": 3108,
      "Ġinterest": 3109,
      "Ġfeel": 3110,
      "ogue": 3111,
      "enci": 3112,
      "duire": 3113,
      "Ġinformations": 3114,
      "ists": 3115,
      "Ġparce": 3116,
      "yn": 3117,
      "Acc": 3118,
      "ĠParlement": 3119,
      "Ġamend": 3120,
      "Ġ;": 3121,
      "Ġlove": 3122,
      "Ġcorrespond": 3123,
      "ĠSecrÃ©": 3124,
      "gard": 3125,
      "Ġalways": 3126,
      "Ġpartners": 3127,
      "Ġprob": 3128,
      "Ġsever": 3129,
      "Åĵuvre": 3130,
      "oms": 3131,
      "ĠnÃ©cessaire": 3132,
      "ried": 3133,
      "Ġjurid": 3134,
      "Ġsubs": 3135,
      "Ġeffet": 3136,
      "ENT": 3137,
      "23": 3138,
      "ma": 3139,
      "tition": 3140,
      "Ġsoient": 3141,
      "Ġrelated": 3142,
      "Ġwhether": 3143,
      "Unis": 3144,
      "titution": 3145,
      "Ġjustice": 3146,
      "Ġeffectu": 3147,
      "Ġrole": 3148,
      "ĠGroup": 3149,
      "Ġconnaiss": 3150,
      "iÃ©s": 3151,
      "Ġseul": 3152,
      "Ġaccordance": 3153,
      "Ġstructure": 3154,
      "Ġnationale": 3155,
      "Ġhttp": 3156,
      "Ġconduc": 3157,
      "erial": 3158,
      "lease": 3159,
      "Ġinvest": 3160,
      "pend": 3161,
      "asion": 3162,
      "oix": 3163,
      "ulaire": 3164,
      "Ġatte": 3165,
      "When": 3166,
      "Ġassistance": 3167,
      "ouvez": 3168,
      "ports": 3169,
      "Ġissue": 3170,
      "ators": 3171,
      "not": 3172,
      "pects": 3173,
      "Ġintegr": 3174,
      "Ġfore": 3175,
      "Ġhabit": 3176,
      "Ġgens": 3177,
      "mission": 3178,
      "Ġcelle": 3179,
      "Ġsommes": 3180,
      "aise": 3181,
      "issant": 3182,
      "ATION": 3183,
      "24": 3184,
      "off": 3185,
      "Ġorganizations": 3186,
      "Ġjob": 3187,
      "ĠGod": 3188,
      "Ġ2009": 3189,
      "Ġvaleur": 3190,
      "hod": 3191,
      "edi": 3192,
      "Ġcommon": 3193,
      "Ġsouv": 3194,
      "ervation": 3195,
      "Ġobjectifs": 3196,
      "Ġprofessionn": 3197,
      "Ã©rations": 3198,
      "ĠJan": 3199,
      "Ġmoyen": 3200,
      "Ġtradition": 3201,
      "Pl": 3202,
      "ised": 3203,
      "ĠGr": 3204,
      "ĠMarch": 3205,
      "Ġcases": 3206,
      "Ġclim": 3207,
      "Ġfield": 3208,
      "Ġfamille": 3209,
      "ctions": 3210,
      "Ġpower": 3211,
      "ask": 3212,
      "ĠrÃ©c": 3213,
      "Ġproduit": 3214,
      "Ġmer": 3215,
      "ĠrÃ©v": 3216,
      "sieur": 3217,
      "ĠannÃ©e": 3218,
      "valu": 3219,
      "05": 3220,
      "ĠSu": 3221,
      "Ġdeal": 3222,
      "ĠdÃ©ta": 3223,
      "oking": 3224,
      "Ġkeep": 3225,
      "Ġprinci": 3226,
      "aix": 3227,
      "ED": 3228,
      "airs": 3229,
      "Ġessenti": 3230,
      "Ġdispon": 3231,
      "Ġsugg": 3232,
      "lex": 3233,
      "Ġcondition": 3234,
      "ĠBoard": 3235,
      "Ġcooperation": 3236,
      "Ġfoc": 3237,
      "Ġsure": 3238,
      "ohn": 3239,
      "Ġtraitement": 3240,
      "Ġsoul": 3241,
      "ĠCont": 3242,
      "Ġkind": 3243,
      "Ġrelatives": 3244,
      "Â°": 3245,
      "Ġfavor": 3246,
      "Ġrecogn": 3247,
      "Ġcertif": 3248,
      "ĠAut": 3249,
      "ither": 3250,
      "Ag": 3251,
      "yse": 3252,
      "Ġstatis": 3253,
      "place": 3254,
      "Ġactions": 3255,
      "ranÃ§": 3256,
      "Comm": 3257,
      "ake": 3258,
      "ids": 3259,
      "Ġfemme": 3260,
      "Ġnouveaux": 3261,
      "line": 3262,
      "Ġarm": 3263,
      "oit": 3264,
      "Ġdeb": 3265,
      "Ġinitiatives": 3266,
      "less": 3267,
      "EL": 3268,
      "ĠServices": 3269,
      "Ġminutes": 3270,
      "Ġreconn": 3271,
      "Ġcontact": 3272,
      "ibles": 3273,
      "Ġthings": 3274,
      "Ġtrade": 3275,
      "ĠÃ©lev": 3276,
      "ames": 3277,
      "Ġclaim": 3278,
      "Ġhappen": 3279,
      "Ġdeli": 3280,
      "Ġmaxim": 3281,
      "Ġquality": 3282,
      "quel": 3283,
      "lo": 3284,
      "Ġtoday": 3285,
      "iez": 3286,
      "Ġfood": 3287,
      "Ġcentre": 3288,
      "ology": 3289,
      "Ġvertu": 3290,
      "Ġdone": 3291,
      "occup": 3292,
      "Ġprojects": 3293,
      "Ġhouse": 3294,
      "issent": 3295,
      "urr": 3296,
      "\",": 3297,
      "tres": 3298,
      "My": 3299,
      "RO": 3300,
      "ĠDec": 3301,
      "ĠAssembly": 3302,
      "Ġide": 3303,
      "Ġgroups": 3304,
      "ienne": 3305,
      "22": 3306,
      "Ġelles": 3307,
      "emploi": 3308,
      "Ġstaff": 3309,
      "IP": 3310,
      "dies": 3311,
      "Ġfile": 3312,
      "ueur": 3313,
      "Oui": 3314,
      "Ġfew": 3315,
      "Ġbesoins": 3316,
      "ĠfÃ©dÃ©r": 3317,
      "cement": 3318,
      "Ġparler": 3319,
      "ĠPr": 3320,
      "Ġoccup": 3321,
      "Ġparticipants": 3322,
      "Ġconsomm": 3323,
      "Ġfinancement": 3324,
      "Ġconcentr": 3325,
      "Ġprovisions": 3326,
      "appro": 3327,
      "Ġtravaux": 3328,
      "Ġbelieve": 3329,
      "ĠrÃ©se": 3330,
      "Ġsignificant": 3331,
      "Ġ2010": 3332,
      "ledge": 3333,
      "Ġaway": 3334,
      "Ġregional": 3335,
      "Organ": 3336,
      "oman": 3337,
      "However": 3338,
      "Ġbal": 3339,
      "Ġorganismes": 3340,
      "Ġcrois": 3341,
      "Ġheld": 3342,
      "With": 3343,
      "Ġable": 3344,
      "Ġgirl": 3345,
      "uter": 3346,
      "Ġpeace": 3347,
      "Ġban": 3348,
      "Ã©liorer": 3349,
      "Ġhear": 3350,
      "Ġmaterial": 3351,
      "Ġsent": 3352,
      "crib": 3353,
      "Ġperman": 3354,
      "voy": 3355,
      "Ġcompe": 3356,
      "ĠService": 3357,
      "Ġdestin": 3358,
      "Ġrecommend": 3359,
      "men": 3360,
      "ced": 3361,
      "04": 3362,
      "Ġrisque": 3363,
      "Ġestablished": 3364,
      "Ġread": 3365,
      "Ġsubmit": 3366,
      "ĠPa": 3367,
      "Ġgovern": 3368,
      "Ġev": 3369,
      "Ġpaix": 3370,
      "Ġlangu": 3371,
      "Ġbo": 3372,
      "Ġconsidered": 3373,
      "Ã¨le": 3374,
      "Ġfonds": 3375,
      "examen": 3376,
      "arch": 3377,
      "Ġgard": 3378,
      "Ġparty": 3379,
      "mm": 3380,
      "Ġvas": 3381,
      "tage": 3382,
      "cept": 3383,
      "ury": 3384,
      "Ġdiscri": 3385,
      "Ġterme": 3386,
      "Ġpourquoi": 3387,
      "Ġconstruction": 3388,
      "Ġdirective": 3389,
      "ĠPe": 3390,
      "Ġbonne": 3391,
      "Ġvisant": 3392,
      "Ġglobal": 3393,
      "HE": 3394,
      "Ġstart": 3395,
      "Ġmars": 3396,
      "Ou": 3397,
      "Ġdonner": 3398,
      "Ġindustri": 3399,
      "ark": 3400,
      "Ġclass": 3401,
      "ĠrÃ©alis": 3402,
      "Ġfish": 3403,
      "orn": 3404,
      "ĠÃ©tr": 3405,
      "Ġlut": 3406,
      "oser": 3407,
      "idÃ©": 3408,
      "ivre": 3409,
      "iÃ¨": 3410,
      "Ġattention": 3411,
      "Ġimpact": 3412,
      "ros": 3413,
      "iÃ¨rement": 3414,
      "rer": 3415,
      "Ġscientif": 3416,
      "Ġmulti": 3417,
      "ventions": 3418,
      "Ġdois": 3419,
      "Ġpromotion": 3420,
      "vier": 3421,
      "Ġreste": 3422,
      "Ġfinal": 3423,
      "atifs": 3424,
      "Ġleast": 3425,
      "Ġposi": 3426,
      "let": 3427,
      "iversity": 3428,
      "Ġkey": 3429,
      "29": 3430,
      "27": 3431,
      "ĠRussi": 3432,
      "Ã©rÃ©": 3433,
      "ash": 3434,
      "Ġindustry": 3435,
      "Ġfree": 3436,
      "co": 3437,
      "illance": 3438,
      "ensem": 3439,
      "Ġcontribution": 3440,
      "ĠHuman": 3441,
      "Ġtherefore": 3442,
      "inÃ©": 3443,
      "Ġsep": 3444,
      "Ġlib": 3445,
      "ctober": 3446,
      "Ġfall": 3447,
      "Ġetc": 3448,
      "Ġcharge": 3449,
      "Ġsubject": 3450,
      "mb": 3451,
      "ril": 3452,
      "itable": 3453,
      "Ġthought": 3454,
      "Ġtran": 3455,
      "03": 3456,
      "rid": 3457,
      "ĠOffice": 3458,
      "Ġinstall": 3459,
      "Why": 3460,
      "eptem": 3461,
      "Ġnight": 3462,
      "Ġrapports": 3463,
      "ĠÃ©p": 3464,
      "Ġnuc": 3465,
      "Ġpropri": 3466,
      "ĠÌģ": 3467,
      "Ġoutre": 3468,
      "ĠRepublic": 3469,
      "Ġturn": 3470,
      "Ġcertaines": 3471,
      "Ġprogress": 3472,
      "Ġcost": 3473,
      "ustrie": 3474,
      "Ġligne": 3475,
      "reen": 3476,
      "ĠrÃ©glement": 3477,
      "Ġsouh": 3478,
      "ĠBureau": 3479,
      "Ġfar": 3480,
      "Ġheures": 3481,
      "Don": 3482,
      "iner": 3483,
      "ĠIN": 3484,
      "Ġcorre": 3485,
      "Ġabove": 3486,
      "osÃ©": 3487,
      "ief": 3488,
      "ublique": 3489,
      "ĠÅĵuvre": 3490,
      "autÃ©": 3491,
      "ĠTrans": 3492,
      "Ġamount": 3493,
      "Ã¢ce": 3494,
      "Ġacqu": 3495,
      "Comme": 3496,
      "Ġdos": 3497,
      "Ġusing": 3498,
      "ensemble": 3499,
      "Ġuntil": 3500,
      "rench": 3501,
      "ĠInc": 3502,
      "General": 3503,
      "Ġenvironment": 3504,
      "Ġgener": 3505,
      "Let": 3506,
      "Ġdifficult": 3507,
      "lements": 3508,
      "Ġconsul": 3509,
      "Ġclear": 3510,
      "Ġreturn": 3511,
      "ender": 3512,
      "ĠInd": 3513,
      "Ġcivil": 3514,
      "Ġnav": 3515,
      "Ġaujourd": 3516,
      "Ġhaving": 3517,
      "Ġmission": 3518,
      "annÃ©e": 3519,
      "Ġrun": 3520,
      "Ġsystems": 3521,
      "ĠCourt": 3522,
      "times": 3523,
      "Ġoeuvre": 3524,
      "avoir": 3525,
      "Ġvarious": 3526,
      "ennes": 3527,
      "ably": 3528,
      "Ã©tabl": 3529,
      "Ã©tu": 3530,
      "aprÃ¨s": 3531,
      "ĠThis": 3532,
      "Ġsuccess": 3533,
      "Ġstrength": 3534,
      "RC": 3535,
      "Ġmoney": 3536,
      "vidence": 3537,
      "Ġdeta": 3538,
      "ĠprÃª": 3539,
      "pril": 3540,
      "ĠCar": 3541,
      "idence": 3542,
      "Ġfab": 3543,
      "tig": 3544,
      "ued": 3545,
      "Ġliber": 3546,
      "tures": 3547,
      "Ġmonths": 3548,
      "ament": 3549,
      "used": 3550,
      "Hey": 3551,
      "Ġadopted": 3552,
      "Ã©rique": 3553,
      "sociation": 3554,
      "Ġpouvez": 3555,
      "ĠcÃ´": 3556,
      "ustr": 3557,
      "Ġresponsibil": 3558,
      "ĠRights": 3559,
      "Ġmethod": 3560,
      "AssemblÃ©e": 3561,
      "Ġhold": 3562,
      "uary": 3563,
      "ĠGroupe": 3564,
      "ĠDr": 3565,
      "ĠWork": 3566,
      "Ġrecent": 3567,
      "Ġenvironnement": 3568,
      "eptember": 3569,
      "accÃ¨s": 3570,
      "Ġbroad": 3571,
      "Now": 3572,
      "ela": 3573,
      "Ġsimil": 3574,
      "Bien": 3575,
      "Ġchap": 3576,
      "istan": 3577,
      "Ġimpl": 3578,
      "Ġproposed": 3579,
      "ergy": 3580,
      "CC": 3581,
      "enf": 3582,
      "Ġcust": 3583,
      "Ġreason": 3584,
      "Ġcosts": 3585,
      "eb": 3586,
      "eck": 3587,
      "ĠrÃ©f": 3588,
      "ley": 3589,
      "Pourquoi": 3590,
      "ĠDieu": 3591,
      "Ġlorsque": 3592,
      "Ġveut": 3593,
      "26": 3594,
      "Alors": 3595,
      "Ġsources": 3596,
      "Ġdue": 3597,
      "Ġreceived": 3598,
      "Ġsein": 3599,
      "Ġauthorities": 3600,
      "Ġ1997": 3601,
      "ĠDepartment": 3602,
      "Ġanything": 3603,
      "Ġleft": 3604,
      "Ġproblem": 3605,
      "ĠMe": 3606,
      "Ġliste": 3607,
      "Ġvig": 3608,
      "Ġmembre": 3609,
      "resse": 3610,
      "ĠNorth": 3611,
      "ĠsystÃ¨mes": 3612,
      "Ġapply": 3613,
      "Ġaffec": 3614,
      "ÃŃ": 3615,
      "ĠdÃ©penses": 3616,
      "06": 3617,
      "Ġcy": 3618,
      "Ġrate": 3619,
      "ĠEt": 3620,
      "Ġremain": 3621,
      "Comment": 3622,
      "ĠprotÃ©": 3623,
      "Ġmaison": 3624,
      "lected": 3625,
      "inion": 3626,
      "Ġbou": 3627,
      "hib": 3628,
      "ips": 3629,
      "Ġporte": 3630,
      "phone": 3631,
      "Ġforme": 3632,
      "tembre": 3633,
      "body": 3634,
      "Ġwhole": 3635,
      "aged": 3636,
      "uelle": 3637,
      "Ġparents": 3638,
      "ĠmatÃ©ri": 3639,
      "Ġvalue": 3640,
      "Ġfive": 3641,
      "2006": 3642,
      "Ġimportance": 3643,
      "ĠJuly": 3644,
      "ĠadoptÃ©": 3645,
      "Ġministre": 3646,
      "Ġsoutien": 3647,
      "Ġeas": 3648,
      "ĠOctober": 3649,
      "ME": 3650,
      "exp": 3651,
      "Ġpartici": 3652,
      "ĠInternet": 3653,
      "ĠSch": 3654,
      "Ġcrimin": 3655,
      "Ġhommes": 3656,
      "je": 3657,
      "Ġaller": 3658,
      "Ġville": 3659,
      "Ġpress": 3660,
      "Ġperformance": 3661,
      "ĠUS": 3662,
      "LE": 3663,
      "Ġdernier": 3664,
      "ĠspÃ©cif": 3665,
      "Ġsolution": 3666,
      "hold": 3667,
      "Ã©publique": 3668,
      "OP": 3669,
      "Ġwar": 3670,
      "thers": 3671,
      "Ġsing": 3672,
      "ience": 3673,
      "Ġmai": 3674,
      "Ġagreement": 3675,
      "ii": 3676,
      "Ġenvironmental": 3677,
      "itaire": 3678,
      "ics": 3679,
      "wards": 3680,
      "ĠWorld": 3681,
      "ĠPlan": 3682,
      "Ġ1996": 3683,
      "Ġdevant": 3684,
      "ĠStr": 3685,
      "Ġdirection": 3686,
      "onse": 3687,
      "ĠAff": 3688,
      "Ġline": 3689,
      "Where": 3690,
      "Ġweek": 3691,
      "02": 3692,
      "nerg": 3693,
      "ufact": 3694,
      "Ġfont": 3695,
      "alogue": 3696,
      "Ġpoursu": 3697,
      "Ġpetit": 3698,
      "ctobre": 3699,
      "ira": 3700,
      "son": 3701,
      "Ġclients": 3702,
      "wa": 3703,
      "asing": 3704,
      "Ġprovides": 3705,
      "vember": 3706,
      "Ġchef": 3707,
      "ung": 3708,
      "Ġpil": 3709,
      "Not": 3710,
      "eth": 3711,
      "Ġyoun": 3712,
      "Ġir": 3713,
      "dro": 3714,
      "trÃ©": 3715,
      "Ġquatre": 3716,
      "Ġtalk": 3717,
      "Ġrelig": 3718,
      "Ġbig": 3719,
      "ana": 3720,
      "Ġplann": 3721,
      "Ã©ric": 3722,
      "Ġadj": 3723,
      "Ġful": 3724,
      "ĠVous": 3725,
      "Ġ2012": 3726,
      "anvier": 3727,
      "Ġcompany": 3728,
      "ĠmÃ©c": 3729,
      "ĠSecretary": 3730,
      "Ġsouhait": 3731,
      "oci": 3732,
      "Ġfinanc": 3733,
      "Ġseptembre": 3734,
      "yer": 3735,
      "vÃ©": 3736,
      "Ġdetermin": 3737,
      "ordre": 3738,
      "Ġcalled": 3739,
      "Ġlevels": 3740,
      "ĠSeptember": 3741,
      "Ġmalad": 3742,
      "Ġrules": 3743,
      "Ġpersons": 3744,
      "ĠsÃ»r": 3745,
      "ctu": 3746,
      "Ġrequest": 3747,
      "Ġmontant": 3748,
      "Ġlaiss": 3749,
      "Ġtypes": 3750,
      "Ġaj": 3751,
      "ĠsÃ©rie": 3752,
      "Ġstrong": 3753,
      "US": 3754,
      "28": 3755,
      "21": 3756,
      "Ġframework": 3757,
      "ĠEng": 3758,
      "Ġplease": 3759,
      "Ġsource": 3760,
      "Ġexport": 3761,
      "Ġbring": 3762,
      "Ġexpress": 3763,
      "Ġcalcul": 3764,
      "Ġextra": 3765,
      "Ã»t": 3766,
      "ĠintÃ©gr": 3767,
      "Ġever": 3768,
      "ĠApril": 3769,
      "Ġdir": 3770,
      "Ġlot": 3771,
      "Ġtaking": 3772,
      "2007": 3773,
      "IV": 3774,
      "ciale": 3775,
      "BAR": 3776,
      "Ġcontract": 3777,
      "Ġsau": 3778,
      "ĠEC": 3779,
      "Ġpost": 3780,
      "acy": 3781,
      "grÃ©": 3782,
      "Ġ_": 3783,
      "Ġ2011": 3784,
      "onds": 3785,
      "Ġjuillet": 3786,
      "Ġeux": 3787,
      "Ġterms": 3788,
      "Ġemp": 3789,
      "Ġbecome": 3790,
      "Ġcommand": 3791,
      "Ġinde": 3792,
      "Ġwr": 3793,
      "Ġtold": 3794,
      "lÃ©ments": 3795,
      "ĠJanuary": 3796,
      "Ġaffaires": 3797,
      "2005": 3798,
      "Ġpor": 3799,
      "Ġprograms": 3800,
      "endu": 3801,
      "tient": 3802,
      "Ġoctobre": 3803,
      "):": 3804,
      "ified": 3805,
      "dess": 3806,
      "ĠOrgan": 3807,
      "uite": 3808,
      "Ġfederal": 3809,
      "ĠprocÃ©dure": 3810,
      "Ġtook": 3811,
      "Ġrecord": 3812,
      "ĠQue": 3813,
      "ĠpassÃ©": 3814,
      "Ġstudy": 3815,
      "Ġseveral": 3816,
      "Ġdeveloping": 3817,
      "Ġobligations": 3818,
      "Ġtechnique": 3819,
      "ĠsupÃ©": 3820,
      "ĠDÃ©": 3821,
      "illed": 3822,
      "ĠÃ©tant": 3823,
      "aÃ®t": 3824,
      "ĠdÃ©but": 3825,
      "Ġlarg": 3826,
      "iÃ©e": 3827,
      "Ġsav": 3828,
      "dom": 3829,
      "Ġdevraient": 3830,
      "ĠAcc": 3831,
      "Ġcelles": 3832,
      "Ġmatter": 3833,
      "Ġcho": 3834,
      "Ġguid": 3835,
      "Ġproch": 3836,
      "Ġmaking": 3837,
      "Ġtermin": 3838,
      "Ġcommenc": 3839,
      "Ġtouch": 3840,
      "sie": 3841,
      "60": 3842,
      "ĠChar": 3843,
      "vembre": 3844,
      "Ġtechnologies": 3845,
      "Ġimprove": 3846,
      "Ã¨ve": 3847,
      "Ġthird": 3848,
      "come": 3849,
      "oitation": 3850,
      "ĠPour": 3851,
      "agit": 3852,
      "ĠNon": 3853,
      "rup": 3854,
      "Ġcame": 3855,
      "Ġaspects": 3856,
      "quÃªte": 3857,
      "ouvernement": 3858,
      "40": 3859,
      "Ġcit": 3860,
      "ĠPri": 3861,
      "Ġproduct": 3862,
      "________________": 3863,
      "uÃ©": 3864,
      "ĠWeb": 3865,
      "lor": 3866,
      "Ġactive": 3867,
      "Ġcapacity": 3868,
      "exerc": 3869,
      "ĠSecurity": 3870,
      "ĠpÃ¨re": 3871,
      "ĠComp": 3872,
      "ĠAgency": 3873,
      "Organisation": 3874,
      "uant": 3875,
      "Ġcannot": 3876,
      "Ġtechniques": 3877,
      "ĠEnviron": 3878,
      "ĠpÃ©n": 3879,
      "Ġvote": 3880,
      "Ġjanvier": 3881,
      "ĠFrench": 3882,
      "tivitÃ©s": 3883,
      "stances": 3884,
      "Ġsouvent": 3885,
      "Ġreach": 3886,
      "rastructure": 3887,
      "lections": 3888,
      "ĠTribunal": 3889,
      "ĠJohn": 3890,
      "cles": 3891,
      "pital": 3892,
      "Ġhard": 3893,
      "Ġsoir": 3894,
      "indre": 3895,
      "Ġunderta": 3896,
      "atoire": 3897,
      "Ġchall": 3898,
      "Ġaucun": 3899,
      "leg": 3900,
      "ĠPublic": 3901,
      "ĠNovember": 3902,
      "Ġdistribution": 3903,
      "Ġtop": 3904,
      "ĠConference": 3905,
      "Ġenergy": 3906,
      "Ġcanadienne": 3907,
      "OC": 3908,
      "Ġcell": 3909,
      "ĠOntario": 3910,
      "ĠPrem": 3911,
      "Ġcommerce": 3912,
      "ĠÃ©n": 3913,
      "ĠnÃ©cessaires": 3914,
      "Ġconsum": 3915,
      "Ġchois": 3916,
      "Ġpatients": 3917,
      "Ġleave": 3918,
      "ĠRec": 3919,
      "Ġdraft": 3920,
      "acitÃ©": 3921,
      "Ã©ducation": 3922,
      "ican": 3923,
      "ĠautoritÃ©s": 3924,
      "Ġpermis": 3925,
      "appel": 3926,
      "ians": 3927,
      "Ġsurveillance": 3928,
      "tively": 3929,
      "Ġitem": 3930,
      "Ġforces": 3931,
      "Ġnovembre": 3932,
      "Ġdeveloped": 3933,
      "ĠcompÃ©": 3934,
      "ival": 3935,
      "rist": 3936,
      "App": 3937,
      "Ġautom": 3938,
      "ĠsupplÃ©ment": 3939,
      "Ġsyn": 3940,
      "Ġprotect": 3941,
      "tices": 3942,
      "Ġreports": 3943,
      "Ġchance": 3944,
      "Ġteam": 3945,
      "Ġcomplex": 3946,
      "mi": 3947,
      "aster": 3948,
      "enez": 3949,
      "Ġwrit": 3950,
      "Ġsafety": 3951,
      "face": 3952,
      "tta": 3953,
      "actions": 3954,
      "ĠauprÃ¨s": 3955,
      "Ġdri": 3956,
      "Ġminor": 3957,
      "Pas": 3958,
      "aced": 3959,
      "ĠBar": 3960,
      "Ġadditional": 3961,
      "ĠmÃ©can": 3962,
      "Ġlight": 3963,
      "Ġcollaboration": 3964,
      "Ġcinq": 3965,
      "orme": 3966,
      "Ġknowledge": 3967,
      "ĠnÃ©goci": 3968,
      "ĠpÃª": 3969,
      "ĠÃ©lÃ©ments": 3970,
      "Ġupon": 3971,
      "ĠRÃ©publique": 3972,
      "ĠÃ¢": 3973,
      "itiz": 3974,
      "ĠMinist": 3975,
      "titude": 3976,
      "Ġchoses": 3977,
      "Ġpolicies": 3978,
      "cy": 3979,
      "uk": 3980,
      "Ġ60": 3981,
      "atural": 3982,
      "tÃ©rie": 3983,
      "Ġmonitor": 3984,
      "Ġinflu": 3985,
      "Ġfins": 3986,
      "ĠcrÃ©ation": 3987,
      "Ġvois": 3988,
      "ĠDes": 3989,
      "ĠOr": 3990,
      "Ġyoung": 3991,
      "Ġzone": 3992,
      "Ġwait": 3993,
      "enda": 3994,
      "ĠderniÃ¨re": 3995,
      "EP": 3996,
      "chan": 3997,
      "Ġgoods": 3998,
      "Ġprim": 3999,
      "Ġlicence": 4000,
      "ĠDirect": 4001,
      "Ġvot": 4002,
      "objet": 4003,
      "Ġunivers": 4004,
      "Ġmember": 4005,
      "Ġarticles": 4006,
      "onnes": 4007,
      "Ġnormes": 4008,
      "Ġmun": 4009,
      "ĠRapp": 4010,
      "Ġaucune": 4011,
      "uve": 4012,
      "ling": 4013,
      "Ġmach": 4014,
      "industrie": 4015,
      "Ġbord": 4016,
      "ĠÃĩ": 4017,
      "Ġpratiques": 4018,
      "Ġconcerned": 4019,
      "Ġchanges": 4020,
      "sy": 4021,
      "encies": 4022,
      "lan": 4023,
      "Ġcoordination": 4024,
      "CT": 4025,
      "Ġaider": 4026,
      "Ġavaient": 4027,
      "aÃ¯": 4028,
      "Ġ1995": 4029,
      "Ġtrou": 4030,
      "Ġtechnical": 4031,
      "Que": 4032,
      "Sh": 4033,
      "Ġseule": 4034,
      "isÃ©": 4035,
      "Ġensemble": 4036,
      "ĠrÃ©gions": 4037,
      "Ġtenu": 4038,
      "Ġprivate": 4039,
      "ontre": 4040,
      "Ġaf": 4041,
      "Ġnombreux": 4042,
      "Ġnetwork": 4043,
      "though": 4044,
      "ĠÃ©trang": 4045,
      "ĠdiffÃ©rents": 4046,
      "IR": 4047,
      "Ġrou": 4048,
      "Ġsites": 4049,
      "ĠcompÃ©t": 4050,
      "Ã©bec": 4051,
      "Ġproblems": 4052,
      "ĠBe": 4053,
      "duced": 4054,
      "pected": 4055,
      "Ġfrais": 4056,
      "Ġwish": 4057,
      "Ġemb": 4058,
      "Ġparticularly": 4059,
      "Ġbody": 4060,
      "Ġwon": 4061,
      "AM": 4062,
      "Ġage": 4063,
      "Ġlow": 4064,
      "ĠRo": 4065,
      "Ġarg": 4066,
      "Some": 4067,
      "Ġdiscrimination": 4068,
      "59": 4069,
      "ĠcapacitÃ©": 4070,
      "tainable": 4071,
      "Ġadap": 4072,
      "ĠcoÃ»ts": 4073,
      "Ġai": 4074,
      "sc": 4075,
      "tification": 4076,
      "2004": 4077,
      "unch": 4078,
      "lin": 4079,
      "ĠÃ©tudi": 4080,
      "mment": 4081,
      "ĠdÃ»": 4082,
      "Ġsw": 4083,
      "employ": 4084,
      "ipment": 4085,
      "Ġmoyens": 4086,
      "Ġfunding": 4087,
      "Ġlesqu": 4088,
      "ĠprÃ¨s": 4089,
      "Ġincluded": 4090,
      "Ġcourt": 4091,
      "Ġhowever": 4092,
      "ĠSpec": 4093,
      "Ġcroissance": 4094,
      "Ġtard": 4095,
      "atiques": 4096,
      "estic": 4097,
      "Ġpasse": 4098,
      "Ġoffice": 4099,
      "Ġ2013": 4100,
      "OS": 4101,
      "administration": 4102,
      "acter": 4103,
      "Ġincreased": 4104,
      "Ġstandards": 4105,
      "Ġeffets": 4106,
      "Ġregul": 4107,
      "ĠParties": 4108,
      "Ġfournir": 4109,
      "ially": 4110,
      "ĠSta": 4111,
      "Ġprest": 4112,
      "Ġexperience": 4113,
      "Ġvir": 4114,
      "ĠfranÃ§": 4115,
      "Ġtom": 4116,
      "ĠBel": 4117,
      "ĠÃ©m": 4118,
      "Ġsociale": 4119,
      "ering": 4120,
      "ĠcatÃ©g": 4121,
      "ĠPal": 4122,
      "Ġavril": 4123,
      "ĠdÃ©lÃ©g": 4124,
      "bers": 4125,
      "change": 4126,
      "Article": 4127,
      "Ġpurs": 4128,
      "ĠdÃ©cisions": 4129,
      "Ġhistor": 4130,
      "Ġtir": 4131,
      "ignement": 4132,
      "ĠFund": 4133,
      "Ġtend": 4134,
      "IL": 4135,
      "Ġred": 4136,
      "ĠAss": 4137,
      "icip": 4138,
      "Ġhon": 4139,
      "Ġassessment": 4140,
      "ike": 4141,
      "Ġpen": 4142,
      "endra": 4143,
      "itre": 4144,
      "Ġgrowth": 4145,
      "Ġhaut": 4146,
      "Ġtes": 4147,
      "Ġprovision": 4148,
      "Ġsimple": 4149,
      "ĠSecrÃ©taire": 4150,
      "Ġconsist": 4151,
      "Ġrisques": 4152,
      "Ġdess": 4153,
      "ĠrÃ¨gles": 4154,
      "Ġpros": 4155,
      "imm": 4156,
      "ĠtraitÃ©": 4157,
      "ĠJus": 4158,
      "ĠprÃ©cÃ©d": 4159,
      "Ġcat": 4160,
      "veur": 4161,
      "Ġimpos": 4162,
      "ĠGerman": 4163,
      "Ġhos": 4164,
      "Ġmention": 4165,
      "Ġemployment": 4166,
      "hy": 4167,
      "Ġinnov": 4168,
      "ige": 4169,
      "Ġstud": 4170,
      "Ġcontributions": 4171,
      "Ġdurable": 4172,
      "Ġresponsible": 4173,
      "estin": 4174,
      "Ġyet": 4175,
      "Ã®tre": 4176,
      "Ġnothing": 4177,
      "Ġversion": 4178,
      "Ġrapid": 4179,
      "Ġtreatment": 4180,
      "One": 4181,
      "Ġsout": 4182,
      "icro": 4183,
      "Ġposs": 4184,
      "Ġcoup": 4185,
      "ĠrÃ©union": 4186,
      "ĠNord": 4187,
      "Ġmondiale": 4188,
      "Ġefficace": 4189,
      "uels": 4190,
      "sibles": 4191,
      "TC": 4192,
      "effic": 4193,
      "ually": 4194,
      "aisse": 4195,
      "ttawa": 4196,
      "Ġdonne": 4197,
      "ĠtÃ©lÃ©": 4198,
      "Ġseem": 4199,
      "Ġstar": 4200,
      "Just": 4201,
      "Ġ)": 4202,
      "Pr": 4203,
      "assif": 4204,
      "Ã«": 4205,
      "Ã©conom": 4206,
      "duit": 4207,
      ".)": 4208,
      "Ġcra": 4209,
      "ĠIndi": 4210,
      "Ġproposition": 4211,
      "armon": 4212,
      "OL": 4213,
      "grÃ¨s": 4214,
      "icial": 4215,
      "Ã©tÃ©s": 4216,
      "arif": 4217,
      "ĠMal": 4218,
      "Ġconfirm": 4219,
      "ological": 4220,
      "ĠdeuxiÃ¨me": 4221,
      "ided": 4222,
      "pÃ©rience": 4223,
      "ĠAt": 4224,
      "Ġprogramm": 4225,
      "ees": 4226,
      "ĠMed": 4227,
      "ompl": 4228,
      "anal": 4229,
      "Ġlive": 4230,
      "St": 4231,
      "naires": 4232,
      "Ġeffect": 4233,
      "ĠOh": 4234,
      "ĠInformation": 4235,
      "Ġaurait": 4236,
      "hen": 4237,
      "ĠItal": 4238,
      "ĠAgre": 4239,
      "Ġquar": 4240,
      "Ġaver": 4241,
      "orteur": 4242,
      "ĠCR": 4243,
      "Ġdel": 4244,
      "Ġonce": 4245,
      "ĠSte": 4246,
      "ĠSocial": 4247,
      "ha": 4248,
      "Ġcoming": 4249,
      "Ġouver": 4250,
      "Ġvigueur": 4251,
      "ĠmÃ¨re": 4252,
      "ĠEm": 4253,
      "ĠWest": 4254,
      "Ġeconom": 4255,
      "ĠResearch": 4256,
      "titut": 4257,
      "ĠRoy": 4258,
      "itch": 4259,
      "ĠTur": 4260,
      "Ġprep": 4261,
      "ĠgrÃ¢ce": 4262,
      "Ã©raux": 4263,
      "ĠdÃ©claration": 4264,
      "icy": 4265,
      "Ġconcerning": 4266,
      "tones": 4267,
      "ĠOF": 4268,
      "Ġprevious": 4269,
      "Ġer": 4270,
      "Ġeither": 4271,
      "Ġplein": 4272,
      "Ġwor": 4273,
      "Ġtarg": 4274,
      "raÃ®": 4275,
      "ills": 4276,
      "ĠAb": 4277,
      "Ġmot": 4278,
      "idd": 4279,
      "aison": 4280,
      "Ġmeasure": 4281,
      "urant": 4282,
      "Canad": 4283,
      "icit": 4284,
      "Ġcam": 4285,
      "Ġmanufact": 4286,
      "Ġoffic": 4287,
      "taining": 4288,
      "Ġseen": 4289,
      "ĠconfÃ©r": 4290,
      "Ġapplicable": 4291,
      "Ġpratique": 4292,
      "olid": 4293,
      "Ġlegislation": 4294,
      "ired": 4295,
      "icile": 4296,
      "autor": 4297,
      "goti": 4298,
      "Est": 4299,
      "ĠDirective": 4300,
      "Ġdialogue": 4301,
      "Ġdead": 4302,
      "Ġdomaines": 4303,
      "Ġpast": 4304,
      "Ġmigr": 4305,
      "ĠmÃ©di": 4306,
      "Ġquanti": 4307,
      "ols": 4308,
      "Ġsurv": 4309,
      "ochtones": 4310,
      "Ġyours": 4311,
      "Ġinvolved": 4312,
      "Ġdossi": 4313,
      "35": 4314,
      "Ġpaie": 4315,
      "Ġtimes": 4316,
      "Ġaliment": 4317,
      "Ġdemandes": 4318,
      "bes": 4319,
      "ĠBri": 4320,
      "Ġshort": 4321,
      "Ġlutte": 4322,
      "ĠSw": 4323,
      "Accord": 4324,
      "Or": 4325,
      "Ġcommunities": 4326,
      "Ġserious": 4327,
      "Ġcommission": 4328,
      "2003": 4329,
      "Ġvisit": 4330,
      "09": 4331,
      "Ġpotential": 4332,
      "urent": 4333,
      "Ġothers": 4334,
      "tariat": 4335,
      "wer": 4336,
      "rop": 4337,
      "ĠnumÃ©ro": 4338,
      "Ġeverything": 4339,
      "tag": 4340,
      "anies": 4341,
      "ĠÃ©conomiques": 4342,
      "aÃ®tre": 4343,
      "rant": 4344,
      "rez": 4345,
      "ĠrÃ©gime": 4346,
      "Ġinstruments": 4347,
      "ĠMinistÃ¨re": 4348,
      "Ġhomme": 4349,
      "ĠopÃ©rations": 4350,
      "Ġconsultation": 4351,
      "Alle": 4352,
      "Ġaccording": 4353,
      "ĠHow": 4354,
      "Ġcommunautaire": 4355,
      "ĠIsra": 4356,
      "ĠFirst": 4357,
      "sel": 4358,
      "âĢĶ": 4359,
      "uge": 4360,
      "ET": 4361,
      "Ġhor": 4362,
      "duce": 4363,
      "erver": 4364,
      "arri": 4365,
      "Ġoften": 4366,
      "Ã©tais": 4367,
      "Ġroom": 4368,
      "gc": 4369,
      "onstr": 4370,
      "ĠManagement": 4371,
      "Okay": 4372,
      "ĠReport": 4373,
      "Ġder": 4374,
      "inst": 4375,
      "member": 4376,
      "ebru": 4377,
      "actÃ©": 4378,
      "Ġvrai": 4379,
      "âĢ¢": 4380,
      "assurer": 4381,
      "esse": 4382,
      "ands": 4383,
      "ĠThat": 4384,
      "ebruary": 4385,
      ".?": 4386,
      "Yes": 4387,
      "ĠPort": 4388,
      "Ġradio": 4389,
      "Ġsouten": 4390,
      "Ġfisc": 4391,
      "exercice": 4392,
      "vant": 4393,
      "Ġrestric": 4394,
      "Ġreferred": 4395,
      "vision": 4396,
      "Ã©hic": 4397,
      "tile": 4398,
      "idents": 4399,
      "Ġwanted": 4400,
      "Ġevidence": 4401,
      "temps": 4402,
      "Ġinternationales": 4403,
      "itaires": 4404,
      "Ã¨glement": 4405,
      "Ã©vrier": 4406,
      "ĠcommunautÃ©": 4407,
      "avis": 4408,
      "Ġpan": 4409,
      "Ġment": 4410,
      "Ġcompos": 4411,
      "ĠJap": 4412,
      "tors": 4413,
      "==": 4414,
      "Ġsociety": 4415,
      "Ġcitoy": 4416,
      "annexe": 4417,
      "Ġshare": 4418,
      "Ġbil": 4419,
      "âĢľ": 4420,
      "Look": 4421,
      "put": 4422,
      "Ġjug": 4423,
      "Ġmag": 4424,
      "Ġbat": 4425,
      "upart": 4426,
      "Ġ1994": 4427,
      "31": 4428,
      "34": 4429,
      "tez": 4430,
      "ĠTer": 4431,
      "Cl": 4432,
      "Ġbegin": 4433,
      "ĠdemandÃ©": 4434,
      "ĠCode": 4435,
      "ĠAc": 4436,
      "Ġsoins": 4437,
      "Ġrelation": 4438,
      "Ġokay": 4439,
      "Ġplupart": 4440,
      "Ġlat": 4441,
      "utÃ´t": 4442,
      "ĠBl": 4443,
      "Ġstop": 4444,
      "Ġtechnology": 4445,
      "pre": 4446,
      "Ġmind": 4447,
      "ening": 4448,
      "chÃ©": 4449,
      "Ġquelqu": 4450,
      "Ġenough": 4451,
      "see": 4452,
      "Ġhours": 4453,
      "aps": 4454,
      "avais": 4455,
      "ologie": 4456,
      "ĠSud": 4457,
      "tection": 4458,
      "ĠDis": 4459,
      "pecially": 4460,
      "Ġboy": 4461,
      "Ġ35": 4462,
      "ĠrÃ©par": 4463,
      "option": 4464,
      "Ġminimum": 4465,
      "Ġoperations": 4466,
      "Ġexigences": 4467,
      "oe": 4468,
      "Ins": 4469,
      "PS": 4470,
      "ergie": 4471,
      "ĠEUR": 4472,
      "Ġstay": 4473,
      "Lors": 4474,
      "Ġcode": 4475,
      "ara": 4476,
      "Ġguy": 4477,
      "Ġsuivi": 4478,
      "vi": 4479,
      "alitÃ©s": 4480,
      "ĠSy": 4481,
      "Ġacross": 4482,
      "cast": 4483,
      "alk": 4484,
      "Ġpropre": 4485,
      "Ġtranspar": 4486,
      "ĠintÃ©ress": 4487,
      "ream": 4488,
      "Ġbad": 4489,
      "ape": 4490,
      "Ġ1990": 4491,
      "Ġgaranti": 4492,
      "IH": 4493,
      "ĠDiv": 4494,
      "iled": 4495,
      "Ġmechan": 4496,
      "ĠprÃ©sident": 4497,
      "Ġinitiative": 4498,
      "ony": 4499,
      "Ġmandat": 4500,
      "Ġtrouve": 4501,
      "Ġachieve": 4502,
      "Ġproceed": 4503,
      "ĠvÃ©hic": 4504,
      "ives": 4505,
      "Ġpasser": 4506,
      "Ġprincipal": 4507,
      "Ãªtes": 4508,
      "oins": 4509,
      "ĠdÃ©mocra": 4510,
      "Ġprovince": 4511,
      "venue": 4512,
      "Quand": 4513,
      "08": 4514,
      "Ġdeath": 4515,
      "Ġproposal": 4516,
      "venant": 4517,
      "nel": 4518,
      "Ġactivity": 4519,
      "ush": 4520,
      "ĠYork": 4521,
      "Ġsolutions": 4522,
      "eal": 4523,
      "Ġevent": 4524,
      "Ġbureau": 4525,
      "Ġask": 4526,
      "Pe": 4527,
      "Ġground": 4528,
      "ĠdiffÃ©rentes": 4529,
      "orie": 4530,
      "Ġchac": 4531,
      "Ġpermettre": 4532,
      "Ġgrant": 4533,
      "Ġpercent": 4534,
      "Ġfeu": 4535,
      "Ġproperty": 4536,
      "Ġfille": 4537,
      "ĠTreat": 4538,
      "Ġtermes": 4539,
      "Ġdiscuss": 4540,
      "ĠEconomic": 4541,
      "TA": 4542,
      "avantage": 4543,
      "Ġexclus": 4544,
      "Ġvill": 4545,
      "Ġpersonal": 4546,
      "ĠMme": 4547,
      "ounts": 4548,
      "Ġapprou": 4549,
      "Ġattend": 4550,
      "ĠAug": 4551,
      "Ġmari": 4552,
      "ĠCommunautÃ©": 4553,
      "ĠAfrica": 4554,
      "inking": 4555,
      "Ġconcurr": 4556,
      "elling": 4557,
      "Ãªmes": 4558,
      "Ġdemander": 4559,
      "Ġinstitution": 4560,
      "Ġanalysis": 4561,
      "Ġconcl": 4562,
      "Ġrevenu": 4563,
      "most": 4564,
      "ĠLaw": 4565,
      "Ġleaders": 4566,
      "DE": 4567,
      "Ġconj": 4568,
      "Ġtels": 4569,
      "Ġenreg": 4570,
      "Ġattrib": 4571,
      "ĠresponsabilitÃ©": 4572,
      "ude": 4573,
      "Ġlater": 4574,
      "argent": 4575,
      "itiative": 4576,
      "Ġassurer": 4577,
      "ĠProtoc": 4578,
      "ĠÃ©tudes": 4579,
      "Ġexisting": 4580,
      "Ġtel": 4581,
      "trer": 4582,
      "ĠInter": 4583,
      "Ġcru": 4584,
      "Ġrendre": 4585,
      "heure": 4586,
      "istry": 4587,
      "Ġmanif": 4588,
      "Ġcommunications": 4589,
      "TR": 4590,
      "Ġrange": 4591,
      "Ġequipment": 4592,
      "Ġprocedures": 4593,
      "ablement": 4594,
      "ĠrÃ©ponse": 4595,
      "ĠSal": 4596,
      "Ġprise": 4597,
      "Ġphy": 4598,
      "ĠrÃ©seau": 4599,
      "Ġlanguage": 4600,
      "Ã©nergie": 4601,
      "Ġelse": 4602,
      "ĠAgreement": 4603,
      "Come": 4604,
      "ĠrÃ©fÃ©rence": 4605,
      "Ġdoesn": 4606,
      "45": 4607,
      "Ġmove": 4608,
      "Ġsignal": 4609,
      "Ġrecommandations": 4610,
      "Ġcrime": 4611,
      "Ġdiscussion": 4612,
      "lam": 4613,
      "2001": 4614,
      "Ġpal": 4615,
      "roit": 4616,
      "Quel": 4617,
      "mÃªme": 4618,
      "ery": 4619,
      "ĠFebruary": 4620,
      "Ġsingle": 4621,
      "Ġsorte": 4622,
      "Ġheure": 4623,
      "ĠprocÃ©dures": 4624,
      "Ġdrug": 4625,
      "Ġmessage": 4626,
      "49": 4627,
      "Ġnegoti": 4628,
      "Ġreported": 4629,
      "Ġmilieu": 4630,
      "Ġsorry": 4631,
      "CP": 4632,
      "ĠÃĥ": 4633,
      "ĠprogrÃ¨s": 4634,
      "iant": 4635,
      "tout": 4636,
      "Ġenj": 4637,
      "Ġbenefits": 4638,
      "ĠpiÃ¨": 4639,
      "Ġvehic": 4640,
      "Ġsubmitted": 4641,
      "ĠparticuliÃ¨rement": 4642,
      "lob": 4643,
      "Ġvoud": 4644,
      "Ġpertin": 4645,
      "ĠKing": 4646,
      "Ġassist": 4647,
      "Ġpurpose": 4648,
      "Ġaide": 4649,
      "Ġwent": 4650,
      "ĠvÃ©r": 4651,
      "Ġopinion": 4652,
      "Ġconver": 4653,
      "Ġclose": 4654,
      "Ġwww": 4655,
      "ĠreÃ§u": 4656,
      "intÃ©gr": 4657,
      "Toute": 4658,
      "Ġprises": 4659,
      "Ġforeign": 4660,
      "ows": 4661,
      "Ġavis": 4662,
      "Ġzones": 4663,
      "lear": 4664,
      "Ġentit": 4665,
      "iennent": 4666,
      "aking": 4667,
      "ĠfÃ©vrier": 4668,
      "Ġacces": 4669,
      "ĠarrÃª": 4670,
      "Ġengagement": 4671,
      "Ġbill": 4672,
      "ĠmarchÃ©s": 4673,
      "ĠDirector": 4674,
      "Are": 4675,
      "eria": 4676,
      "osph": 4677,
      "riculture": 4678,
      "amn": 4679,
      "ĠTHE": 4680,
      "Your": 4681,
      "Rec": 4682,
      "Ġobjectives": 4683,
      "Ġarrang": 4684,
      "isant": 4685,
      "tissement": 4686,
      "Ġcherche": 4687,
      "ically": 4688,
      "ocation": 4689,
      "ĠÂ»,": 4690,
      "pos": 4691,
      "ĠÂ».": 4692,
      "33": 4693,
      "ĠministÃ¨re": 4694,
      "Ġsac": 4695,
      "Be": 4696,
      "Ġchoix": 4697,
      "Ġrates": 4698,
      "Ġpublication": 4699,
      "oÃ»t": 4700,
      "Ġhope": 4701,
      "Ġincome": 4702,
      "Ġadministrative": 4703,
      "Cela": 4704,
      "ignes": 4705,
      "Ġknown": 4706,
      "2008": 4707,
      "ĠreprÃ©sentants": 4708,
      "ĠstratÃ©gie": 4709,
      "ordin": 4710,
      "Ġinten": 4711,
      "ciaux": 4712,
      "Ġearly": 4713,
      "sition": 4714,
      "igine": 4715,
      "ĠprÃ©occup": 4716,
      "Ġorganization": 4717,
      "ĠplutÃ´t": 4718,
      "Ġguerre": 4719,
      "IM": 4720,
      "Ġsecret": 4721,
      "Ġnationales": 4722,
      "eries": 4723,
      "Ġcentral": 4724,
      "Ġcompanies": 4725,
      "Ġappear": 4726,
      "Ġmunicip": 4727,
      "Ġhau": 4728,
      "Ġqualif": 4729,
      "utive": 4730,
      "Ġapplications": 4731,
      "ĠHar": 4732,
      "Ã©cution": 4733,
      "07": 4734,
      "ĠSouth": 4735,
      "ambre": 4736,
      "Ġsuit": 4737,
      "ranch": 4738,
      "new": 4739,
      "Ġgreater": 4740,
      "Ġcitiz": 4741,
      "Ġkill": 4742,
      "Ġformul": 4743,
      "Ġmaximum": 4744,
      "Ã©taire": 4745,
      "Ġfocus": 4746,
      "ĠrÃ©duire": 4747,
      "tm": 4748,
      "Ġdim": 4749,
      "Ġurg": 4750,
      "ĠMc": 4751,
      "ĠconsidÃ©r": 4752,
      "Ġliving": 4753,
      "Ġdescrib": 4754,
      "anding": 4755,
      "ĠEuro": 4756,
      "Ġresponse": 4757,
      "Ġjoin": 4758,
      "Ġcred": 4759,
      "Ġmine": 4760,
      "Ġenh": 4761,
      "Ġvoie": 4762,
      "erm": 4763,
      "Ġeth": 4764,
      "ĠfinanciÃ¨re": 4765,
      "Ã¨ge": 4766,
      "aci": 4767,
      "Ġtre": 4768,
      "rage": 4769,
      "ĠQuÃ©bec": 4770,
      "Ġsecteurs": 4771,
      "Ġfigure": 4772,
      "May": 4773,
      "Ġbook": 4774,
      "ĠdÃ©terminer": 4775,
      "Ġbuilding": 4776,
      "Ġrecommendations": 4777,
      "Ġemerg": 4778,
      "iversitÃ©": 4779,
      "Ġauthority": 4780,
      "Ġposte": 4781,
      "ĠGe": 4782,
      "key": 4783,
      "Ġprison": 4784,
      "Ġwel": 4785,
      "Ġlorsqu": 4786,
      "Ġfich": 4787,
      "Who": 4788,
      "Ġbeau": 4789,
      "tier": 4790,
      "Ġtravers": 4791,
      "Ġneeded": 4792,
      "Ġdisposition": 4793,
      "ONU": 4794,
      "Ġlimit": 4795,
      "ump": 4796,
      "Ġtravaill": 4797,
      "Ġext": 4798,
      "Ã©gard": 4799,
      "Ġchangements": 4800,
      "olutions": 4801,
      "Ġmarchand": 4802,
      "iginal": 4803,
      "Ġconsultations": 4804,
      "ls": 4805,
      "venu": 4806,
      "DP": 4807,
      "Ġorganisation": 4808,
      "Ġprocedure": 4809,
      "Ġvou": 4810,
      "ecause": 4811,
      "Ã¨de": 4812,
      "Ġoutside": 4813,
      "Ġnoted": 4814,
      "raft": 4815,
      "elines": 4816,
      "Ġhot": 4817,
      "Ġrepro": 4818,
      "Ġpropor": 4819,
      "Ġcond": 4820,
      "ĠConfÃ©rence": 4821,
      "xte": 4822,
      "Ġprevent": 4823,
      "aging": 4824,
      "hÃ©": 4825,
      "Ġrac": 4826,
      "Ã©tat": 4827,
      "Ġobtenir": 4828,
      "fait": 4829,
      "Ġespecially": 4830,
      "Aut": 4831,
      "Ġpositive": 4832,
      "ĠUniversity": 4833,
      "atures": 4834,
      "Ġtowards": 4835,
      "anges": 4836,
      "va": 4837,
      "Ġnuit": 4838,
      "oie": 4839,
      "Ġmut": 4840,
      "Ġangl": 4841,
      "Ġparc": 4842,
      "Ġeffects": 4843,
      "ĠAN": 4844,
      "verse": 4845,
      "Ã©laboration": 4846,
      "Ġbudg": 4847,
      "Ġrenforcer": 4848,
      "Ġstatus": 4849,
      "dre": 4850,
      "----": 4851,
      "Ġpartenaires": 4852,
      "ĠemployÃ©s": 4853,
      "Ã©der": 4854,
      "oke": 4855,
      "55": 4856,
      "Ġmother": 4857,
      "Ġimportante": 4858,
      "ĠcrÃ©er": 4859,
      "entreprise": 4860,
      "Go": 4861,
      "Ġresponsibility": 4862,
      "Ġindepend": 4863,
      "ĠcomitÃ©": 4864,
      "Ġdise": 4865,
      "Ġvisite": 4866,
      "Ġalong": 4867,
      "................": 4868,
      "Ġaltern": 4869,
      "Ġstation": 4870,
      "Ġannual": 4871,
      "Ġfather": 4872,
      "ĠindÃ©p": 4873,
      "Ġprepar": 4874,
      "Ġproviding": 4875,
      "Ġhigher": 4876,
      "CR": 4877,
      "ipp": 4878,
      "Ġteach": 4879,
      "Ġterm": 4880,
      "Fin": 4881,
      "ĠEl": 4882,
      "Ġ196": 4883,
      "Ġperspec": 4884,
      "Ã©li": 4885,
      "uh": 4886,
      "Ġnationaux": 4887,
      "ouvoir": 4888,
      "ĠAugust": 4889,
      "Ġ2014": 4890,
      "Ġfunction": 4891,
      "mon": 4892,
      "2000": 4893,
      "gar": 4894,
      "rÃ©e": 4895,
      "Ġphys": 4896,
      "ttes": 4897,
      "Ġnatural": 4898,
      "Ġsimilar": 4899,
      "39": 4900,
      "IF": 4901,
      "Ġcontent": 4902,
      "Ġguys": 4903,
      "ruit": 4904,
      "Ġincreasing": 4905,
      "importance": 4906,
      "ĠTreaty": 4907,
      "Ġsuivants": 4908,
      "ĠAffairs": 4909,
      "Ġfils": 4910,
      "ĠCal": 4911,
      "ĠTo": 4912,
      "Ġcharacter": 4913,
      "Ġdecisions": 4914,
      "Ġbelow": 4915,
      "Plus": 4916,
      "ĠrÃ©sid": 4917,
      "Ġ+": 4918,
      "unt": 4919,
      "Ġactuellement": 4920,
      "Af": 4921,
      "Ġsuivant": 4922,
      "Ġfront": 4923,
      "Ġlooking": 4924,
      "tish": 4925,
      "rought": 4926,
      "ĠÃ©lect": 4927,
      "Ġexpected": 4928,
      "Ġfaites": 4929,
      "2002": 4930,
      "Ġcity": 4931,
      "Ġsam": 4932,
      "aign": 4933,
      "Ġdanger": 4934,
      "Ġinvestment": 4935,
      "bon": 4936,
      "Ġphase": 4937,
      "Ġutiliser": 4938,
      "Ġemployees": 4939,
      "ĠCap": 4940,
      "Ġaccompl": 4941,
      "iquÃ©": 4942,
      "Ġpopulations": 4943,
      "Ġtexte": 4944,
      "ĠÃ©lectron": 4945,
      "Ġasked": 4946,
      "ologique": 4947,
      "ĠGouvernement": 4948,
      "Ġmiss": 4949,
      "ĠAir": 4950,
      "%)": 4951,
      "Ġstandard": 4952,
      "sych": 4953,
      "CH": 4954,
      "Ġbenefit": 4955,
      "Ġsenti": 4956,
      "Ġwind": 4957,
      "otal": 4958,
      "ĠChrist": 4959,
      "Ġenvoy": 4960,
      "Ġrespond": 4961,
      "intÃ©rÃªt": 4962,
      "48": 4963,
      "ommun": 4964,
      "ĠParis": 4965,
      "activitÃ©": 4966,
      "Ġlangue": 4967,
      "riÃ¨re": 4968,
      "Ġvenir": 4969,
      "AF": 4970,
      "tait": 4971,
      "ĠPer": 4972,
      "bourg": 4973,
      "Ġfaveur": 4974,
      "Ġprincipes": 4975,
      "Ġsoon": 4976,
      "ĠsÃ©lection": 4977,
      "organisation": 4978,
      "Ġcommune": 4979,
      "Ġpermanent": 4980,
      "br": 4981,
      "Ġsuc": 4982,
      "Ġperf": 4983,
      "ĠtÃªte": 4984,
      "Ġside": 4985,
      "ueill": 4986,
      "Ġfriend": 4987,
      "OU": 4988,
      "Ġaura": 4989,
      "Ġmonitoring": 4990,
      "Bon": 4991,
      "PP": 4992,
      "htm": 4993,
      "vec": 4994,
      "Ġassez": 4995,
      "Ġsemaine": 4996,
      "Vo": 4997,
      "Ġmodern": 4998,
      "Ġlequel": 4999,
      "Ġpotenti": 5000,
      "more": 5001,
      "auvre": 5002,
      "ĠcÃ´tÃ©": 5003,
      "Ġchamp": 5004,
      "tÃ©e": 5005,
      "den": 5006,
      "Ġprovincial": 5007,
      "Ġfight": 5008,
      "Ġcurrently": 5009,
      "where": 5010,
      "Ġcentres": 5011,
      "avez": 5012,
      "ĠSpecial": 5013,
      "based": 5014,
      "tÃ©s": 5015,
      "Ġaccomp": 5016,
      "Ġregarding": 5017,
      "ert": 5018,
      "Ġpourraient": 5019,
      "Ġsum": 5020,
      "Ġterre": 5021,
      "Ġsafe": 5022,
      "Ġorient": 5023,
      "Ġgouvernements": 5024,
      "Ġ2015": 5025,
      "37": 5026,
      "enz": 5027,
      "Ġailleurs": 5028,
      "Ġprice": 5029,
      "rel": 5030,
      "Ġconvention": 5031,
      "ored": 5032,
      "uted": 5033,
      "Ġconsac": 5034,
      "36": 5035,
      "odies": 5036,
      "aissance": 5037,
      "Ġsubstances": 5038,
      "umb": 5039,
      "arian": 5040,
      "Ġjustif": 5041,
      "bec": 5042,
      "Ġtelle": 5043,
      "ĠAnnex": 5044,
      "ĠrÃ©pondre": 5045,
      "Ġwrong": 5046,
      "ĠpÃªche": 5047,
      "38": 5048,
      "rog": 5049,
      "Ġroute": 5050,
      "Ġhom": 5051,
      "Ġforward": 5052,
      "Ġ90": 5053,
      "ilÃł": 5054,
      "Ġworkers": 5055,
      "Ġcarry": 5056,
      "Ġcarried": 5057,
      "origine": 5058,
      "anced": 5059,
      "Ġterritoire": 5060,
      "ĠSc": 5061,
      "Ġpaid": 5062,
      "Ġviv": 5063,
      "Ġmakes": 5064,
      "rÃªts": 5065,
      "ĠCong": 5066,
      "ĠespÃ¨": 5067,
      "Ġgaz": 5068,
      "Ġphysi": 5069,
      "32": 5070,
      "osure": 5071,
      "Ġformer": 5072,
      "Ġpromote": 5073,
      "ĠTechn": 5074,
      ",\"": 5075,
      "usement": 5076,
      "Ġpetite": 5077,
      "ĠSaint": 5078,
      "Did": 5079,
      "ĠtÃ©m": 5080,
      "naire": 5081,
      "Ġtenir": 5082,
      "ĠSi": 5083,
      "tte": 5084,
      "aries": 5085,
      "Ġfaci": 5086,
      "Ġdipl": 5087,
      "Ġpractice": 5088,
      "Ġsang": 5089,
      "Ġcombat": 5090,
      "Ġopportunity": 5091,
      "Ġcertific": 5092,
      "Ġordin": 5093,
      "Ġdavantage": 5094,
      "erie": 5095,
      "Ġfine": 5096,
      "Ġcontext": 5097,
      "ĠamÃ©liorer": 5098,
      "dire": 5099,
      "ĠpossibilitÃ©": 5100,
      "inves": 5101,
      "ĠcaractÃ©": 5102,
      "Ġsembl": 5103,
      ")(": 5104,
      "ellectu": 5105,
      "ĠdurÃ©e": 5106,
      "Ġreform": 5107,
      "exploitation": 5108,
      "Ġplanning": 5109,
      "Ġait": 5110,
      "Ġ1993": 5111,
      "Ġcustom": 5112,
      "Ġlois": 5113,
      "aume": 5114,
      "Ġcross": 5115,
      "ĠutilisÃ©": 5116,
      "Ġpractices": 5117,
      "Ġself": 5118,
      "arth": 5119,
      "Ġsoulign": 5120,
      "AprÃ¨s": 5121,
      "ĠrÃ©duction": 5122,
      "198": 5123,
      "ĠmodÃ¨le": 5124,
      "47": 5125,
      "Ġey": 5126,
      "Ġrather": 5127,
      "ĠJustice": 5128,
      "Ġlearn": 5129,
      "Ġstatut": 5130,
      "Ġdimin": 5131,
      "Sur": 5132,
      "aime": 5133,
      "Ġofficial": 5134,
      "Ġtort": 5135,
      "Ġstre": 5136,
      "ĠBro": 5137,
      "Can": 5138,
      "fs": 5139,
      "Ġtot": 5140,
      "forme": 5141,
      "Ġthreat": 5142,
      "ĠCE": 5143,
      "ĠcontrÃ´": 5144,
      "yle": 5145,
      "Ġsepar": 5146,
      "ĠamÃ©ric": 5147,
      "Ġsomeone": 5148,
      "Ġretr": 5149,
      "Ġcompens": 5150,
      "Ġjuridique": 5151,
      "ding": 5152,
      "isÃ©s": 5153,
      "Ġparmi": 5154,
      "Ġmondial": 5155,
      "SP": 5156,
      "ĠopÃ©ration": 5157,
      "ney": 5158,
      "Ġprincipe": 5159,
      "nous": 5160,
      "Ã¨rent": 5161,
      "ĠlÃ©gislation": 5162,
      "Ġroad": 5163,
      "uns": 5164,
      "ĠprÃ©senter": 5165,
      "Ġconclusions": 5166,
      "Se": 5167,
      "Ġfort": 5168,
      "ĠBank": 5169,
      "Ġsemble": 5170,
      "Ġfunds": 5171,
      "ĠCe": 5172,
      "Ġagents": 5173,
      "Ġremar": 5174,
      "Ġlonger": 5175,
      "Ġidea": 5176,
      "Ġreference": 5177,
      "Ġsays": 5178,
      "arante": 5179,
      "ĠIII": 5180,
      "issements": 5181,
      "Ġagencies": 5182,
      "Ġamb": 5183,
      "Ġstrategy": 5184,
      "cell": 5185,
      "Ġheart": 5186,
      "ĠPart": 5187,
      "Ġjoint": 5188,
      "abord": 5189,
      "Ġappu": 5190,
      "ĠMad": 5191,
      "Ġtrying": 5192,
      "Ġcorps": 5193,
      "Ġcultural": 5194,
      "Ġ1992": 5195,
      "ennent": 5196,
      "Ġsaw": 5197,
      "Ġvoulez": 5198,
      "ĠthÃ©": 5199,
      "bert": 5200,
      "leur": 5201,
      "ueil": 5202,
      "diction": 5203,
      "Ġtransition": 5204,
      "inqu": 5205,
      "cience": 5206,
      "Ġdevons": 5207,
      "ĠtrouvÃ©": 5208,
      "nels": 5209,
      "Ġclin": 5210,
      "Ġadministr": 5211,
      "Ġago": 5212,
      "Ġessay": 5213,
      "aring": 5214,
      "ĠmÃ©dec": 5215,
      "Ġsort": 5216,
      "Ġclaire": 5217,
      "ÃĩÃ": 5218,
      "ĠBut": 5219,
      "prit": 5220,
      "Ġcomprendre": 5221,
      "Ġpurposes": 5222,
      "bres": 5223,
      "Ġhappened": 5224,
      "uration": 5225,
      "Ġfacilit": 5226,
      "Ġâ": 5227,
      "aby": 5228,
      "Ġbiens": 5229,
      "ĠexÃ©c": 5230,
      "tenant": 5231,
      "Ġidentified": 5232,
      "boriginal": 5233,
      "Ġmodel": 5234,
      "rab": 5235,
      "Ġjeu": 5236,
      "ĠprÃ©vention": 5237,
      "ĠfrÃ©": 5238,
      "head": 5239,
      "Ġstudies": 5240,
      "ĠÃ©labor": 5241,
      "Ġbreak": 5242,
      "IB": 5243,
      "SA": 5244,
      "Ġ45": 5245,
      "Ġrencon": 5246,
      "Ġprovinces": 5247,
      "uff": 5248,
      "Â».": 5249,
      "ĠlÃ©gisl": 5250,
      "Ġhalf": 5251,
      "bit": 5252,
      "eurs": 5253,
      "Ġachie": 5254,
      "Ġcapit": 5255,
      "Ġnombreuses": 5256,
      "Ġexperts": 5257,
      "EUR": 5258,
      "Ġevaluation": 5259,
      "kely": 5260,
      "Ġsurface": 5261,
      "IA": 5262,
      "aving": 5263,
      "Ġlum": 5264,
      "Ġcut": 5265,
      "Ġrelating": 5266,
      "ĠSection": 5267,
      "Ġpied": 5268,
      "agers": 5269,
      "ĠTor": 5270,
      "Ġniveaux": 5271,
      "ades": 5272,
      "Ġpublics": 5273,
      "OT": 5274,
      "ĠPre": 5275,
      "ĠOui": 5276,
      "Ġautochtones": 5277,
      "ĠdÃ©fense": 5278,
      "lectric": 5279,
      "ismes": 5280,
      "Ġaverage": 5281,
      "irit": 5282,
      "gu": 5283,
      "Ġreporting": 5284,
      "Ġurb": 5285,
      "ĠCanadians": 5286,
      "ĠDivision": 5287,
      "entral": 5288,
      "Ġrecours": 5289,
      "Ġtarget": 5290,
      "tation": 5291,
      "Ġvient": 5292,
      "ĠEnglish": 5293,
      "ĠâĻª": 5294,
      "ester": 5295,
      "ional": 5296,
      "tenir": 5297,
      "Ġsuivantes": 5298,
      "Ġprend": 5299,
      "Ġlink": 5300,
      "ĠCanadiens": 5301,
      "à¤": 5302,
      "Ġsociaux": 5303,
      "57": 5304,
      "Ġdurant": 5305,
      "Ġdirectement": 5306,
      "Ġrele": 5307,
      "Ġsustainable": 5308,
      "ĠCOM": 5309,
      "Ġgetting": 5310,
      "itions": 5311,
      "Ġmys": 5312,
      "Ġpreuve": 5313,
      "bsite": 5314,
      "Our": 5315,
      "ecutive": 5316,
      "Office": 5317,
      "toi": 5318,
      "Ġpack": 5319,
      "ĠBan": 5320,
      "ĠSupp": 5321,
      "Ġremember": 5322,
      "Ġheard": 5323,
      "Ġdomestic": 5324,
      "erb": 5325,
      "Ġcompagn": 5326,
      "Ġdispar": 5327,
      "Ġoffre": 5328,
      "Ġ=": 5329,
      "inform": 5330,
      "Ġdepart": 5331,
      "Ġincludes": 5332,
      "aud": 5333,
      "Ġassociated": 5334,
      "ĠAmerica": 5335,
      "Ġpauvre": 5336,
      "Ġincor": 5337,
      "ĠPolicy": 5338,
      "By": 5339,
      "Ġtelles": 5340,
      "atr": 5341,
      "Ġvoyage": 5342,
      "Ġitself": 5343,
      "58": 5344,
      "atri": 5345,
      "Ġmarchandises": 5346,
      "hips": 5347,
      "olÃ©": 5348,
      "Ġmilitary": 5349,
      "oque": 5350,
      "Ġdat": 5351,
      "Ġwords": 5352,
      "Ġagreed": 5353,
      "ĠdÃ¨s": 5354,
      "titute": 5355,
      "ĠÃ©quip": 5356,
      "Cer": 5357,
      "ĠÃītat": 5358,
      "Ġmodifications": 5359,
      "Ġblood": 5360,
      "Ġfinanciers": 5361,
      "!!": 5362,
      "ĠdÃ©ch": 5363,
      "ama": 5364,
      "oid": 5365,
      "Ġvolume": 5366,
      "Ġgenre": 5367,
      "Ġtravailleurs": 5368,
      "Ġtent": 5369,
      "Ġprincipaux": 5370,
      "ĠSub": 5371,
      "ĠDan": 5372,
      "cÃ©": 5373,
      "tÃ©es": 5374,
      "Ġstress": 5375,
      "Ġcomplete": 5376,
      "ĠderniÃ¨res": 5377,
      "Ġchalleng": 5378,
      "Ġhar": 5379,
      "Ġplain": 5380,
      "Ġcomporte": 5381,
      "Ġmauv": 5382,
      "Ġlibre": 5383,
      "Ã©tique": 5384,
      "Ã©lioration": 5385,
      "ĠShe": 5386,
      "Ġtruc": 5387,
      "ĠÃ©crit": 5388,
      "ĠgÃ©": 5389,
      "Ġcompet": 5390,
      "Ġtry": 5391,
      "ĠdÃ©bat": 5392,
      "ĠfÃ©dÃ©ral": 5393,
      "claration": 5394,
      "habit": 5395,
      "46": 5396,
      "nelle": 5397,
      "ĠVal": 5398,
      "Ġfilm": 5399,
      "ĠmÃ©dica": 5400,
      "Ġincl": 5401,
      "veness": 5402,
      "Ġbrought": 5403,
      "Ġword": 5404,
      "Ġtempor": 5405,
      "Ġcombin": 5406,
      "Ġvaleurs": 5407,
      "anci": 5408,
      "ott": 5409,
      "Ġexiste": 5410,
      "ING": 5411,
      "Ġgas": 5412,
      "fic": 5413,
      "Ġsud": 5414,
      "Ġ36": 5415,
      "Ġ80": 5416,
      "lation": 5417,
      "ĠÃ©tat": 5418,
      "ĠRÃ©": 5419,
      "equ": 5420,
      "Ġbois": 5421,
      "Ġtechnologie": 5422,
      "Ġinspec": 5423,
      "Ġdifficile": 5424,
      "usse": 5425,
      "fficient": 5426,
      "ĠNous": 5427,
      "Ġpromouvoir": 5428,
      "Ġcompon": 5429,
      "Ġresponsable": 5430,
      "Ġconfer": 5431,
      "Ġlimited": 5432,
      "Ġdouble": 5433,
      "ĠmÃ©thodes": 5434,
      "ĠÃĢ": 5435,
      "Then": 5436,
      "Ġapproved": 5437,
      "Qui": 5438,
      "gy": 5439,
      "Ġsuppl": 5440,
      "Ġagreements": 5441,
      "Ġexten": 5442,
      "ĠâĢĺ": 5443,
      "Ġsuffis": 5444,
      "Ã©conomie": 5445,
      "rement": 5446,
      "user": 5447,
      "Ġnotes": 5448,
      "istered": 5449,
      "Ġsound": 5450,
      "ĠaccÃ¨s": 5451,
      "lands": 5452,
      "Ġensuite": 5453,
      "Ġsurtout": 5454,
      "Ġdemonstr": 5455,
      "Ġpoll": 5456,
      "ĠnuclÃ©": 5457,
      "Ġcitizens": 5458,
      "Ġpois": 5459,
      "Ġsymp": 5460,
      "Ġnormal": 5461,
      "poration": 5462,
      "Ġvoiture": 5463,
      "Ġspeak": 5464,
      "Ġdisponibles": 5465,
      "Ġparticiper": 5466,
      "Ã«l": 5467,
      "exÃ©cution": 5468,
      "ĠAmerican": 5469,
      ".âĢĿ": 5470,
      "Ġpsych": 5471,
      "ĠcritÃ¨res": 5472,
      "vÃ©e": 5473,
      "Ġcomplet": 5474,
      "Ġencourage": 5475,
      "Ġcontexte": 5476,
      "Ġfully": 5477,
      "istÃ©": 5478,
      "Ġanci": 5479,
      "ĠcaractÃ©ris": 5480,
      "ĠaoÃ»t": 5481,
      "Ġchangement": 5482,
      "CEE": 5483,
      "ĠBritish": 5484,
      "Ġcateg": 5485,
      "Selon": 5486,
      "vin": 5487,
      "atur": 5488,
      "Ġconseil": 5489,
      "utri": 5490,
      "Ġarch": 5491,
      "Ġcontinuer": 5492,
      "objec": 5493,
      "Ġimmedi": 5494,
      "Ġlac": 5495,
      "Ġvul": 5496,
      "Ġrepl": 5497,
      "Ġwoman": 5498,
      "uild": 5499,
      "Ġstock": 5500,
      "ĠcapacitÃ©s": 5501,
      "ware": 5502,
      "rew": 5503,
      "ĠÃ©gard": 5504,
      "Ġpresented": 5505,
      "inks": 5506,
      "Ã©tablissement": 5507,
      "Ġcul": 5508,
      "Ġmicro": 5509,
      "âĢĵ": 5510,
      "Ã¨tres": 5511,
      "Ġadministration": 5512,
      "hist": 5513,
      "hors": 5514,
      "ĠAnn": 5515,
      "Ġfacteurs": 5516,
      "ĠnÃ©cessitÃ©": 5517,
      "Ġnear": 5518,
      "appui": 5519,
      "ĠDoc": 5520,
      "Ġdirectly": 5521,
      "Ġspecies": 5522,
      "Ġdeme": 5523,
      "urt": 5524,
      "Ġconclud": 5525,
      "2009": 5526,
      "TS": 5527,
      "pir": 5528,
      "tences": 5529,
      "Ġact": 5530,
      "Ġfonctions": 5531,
      "amental": 5532,
      "ritann": 5533,
      "Ġtravailler": 5534,
      "Ġsituations": 5535,
      "ĠconsÃ©quent": 5536,
      "zy": 5537,
      "Ġloss": 5538,
      "Ġsait": 5539,
      "ract": 5540,
      "Ġgros": 5541,
      "efficacitÃ©": 5542,
      "analyse": 5543,
      "tise": 5544,
      "Ġmass": 5545,
      "ĠpropriÃ©tÃ©": 5546,
      "orrow": 5547,
      "Ġfaible": 5548,
      "ĠlibertÃ©": 5549,
      "CN": 5550,
      "Ġfire": 5551,
      "tÃ©rieur": 5552,
      "ĠEtats": 5553,
      "Ġcomprend": 5554,
      "Ġfreed": 5555,
      "After": 5556,
      "Dep": 5557,
      "ĠrÃ©gul": 5558,
      "Ġrepresentatives": 5559,
      "dessus": 5560,
      "portation": 5561,
      "Ġbasic": 5562,
      "Ġeconomy": 5563,
      "dis": 5564,
      "ĠRÃ¨glement": 5565,
      "ĠprÃ©sentÃ©": 5566,
      "Ġportant": 5567,
      "Ġdeliver": 5568,
      "berta": 5569,
      "Ġmur": 5570,
      "Ġcaract": 5571,
      "56": 5572,
      "99": 5573,
      "Ġconsideration": 5574,
      "Res": 5575,
      "Ġalone": 5576,
      "ĠGovern": 5577,
      "lande": 5578,
      "illez": 5579,
      "obs": 5580,
      "eness": 5581,
      "isÃ©e": 5582,
      "ĠDecision": 5583,
      "ĠIsrael": 5584,
      "Ġbless": 5585,
      "termine": 5586,
      "ĠSur": 5587,
      "Ġdang": 5588,
      "Ġclasse": 5589,
      "Ġcreate": 5590,
      "Ġevents": 5591,
      "onto": 5592,
      "CO": 5593,
      "Ġinternationaux": 5594,
      "Ġretour": 5595,
      "Ġactually": 5596,
      "AG": 5597,
      "Ġtiers": 5598,
      "Ġratif": 5599,
      "ĠDate": 5600,
      "Ġregions": 5601,
      "Ġenregistr": 5602,
      "Ġaudi": 5603,
      "erson": 5604,
      "ops": 5605,
      "Ġ500": 5606,
      "ologiques": 5607,
      "Ġscience": 5608,
      "erves": 5609,
      "Ġmoyenne": 5610,
      "ĠreprÃ©sentant": 5611,
      "Ġdecl": 5612,
      "Ġpropres": 5613,
      "ĠRegulations": 5614,
      "Ġpension": 5615,
      "arr": 5616,
      "Ġapport": 5617,
      "ility": 5618,
      "ĠCro": 5619,
      "ĠFonds": 5620,
      "Ġagenda": 5621,
      "Ġtalking": 5622,
      "Ġlabour": 5623,
      "inÃ©a": 5624,
      "Ġouv": 5625,
      "Ġ38": 5626,
      "ĠliÃ©s": 5627,
      "ĠvÃ©rification": 5628,
      "Ġcontrat": 5629,
      "ĠCommissioner": 5630,
      "Ġconvient": 5631,
      "DI": 5632,
      "Ġpropositions": 5633,
      "Ġdecided": 5634,
      "jud": 5635,
      "uellement": 5636,
      "Ã¤": 5637,
      "abs": 5638,
      "ĠentraÃ®": 5639,
      "Add": 5640,
      "Ġopportunities": 5641,
      "ĠfranÃ§ais": 5642,
      "Ġcitoyens": 5643,
      "rance": 5644,
      "Ġentire": 5645,
      "Please": 5646,
      "ino": 5647,
      "ĠÃ©valu": 5648,
      "Ġfriends": 5649,
      "44": 5650,
      "ĠsociÃ©tÃ©s": 5651,
      "Ġfamil": 5652,
      "crip": 5653,
      "active": 5654,
      "enseignement": 5655,
      "Ġreceive": 5656,
      "Ġsil": 5657,
      "cipl": 5658,
      "umber": 5659,
      "Ġclassif": 5660,
      "ĠAboriginal": 5661,
      "Ġisn": 5662,
      "ĠHigh": 5663,
      "Because": 5664,
      "Â»,": 5665,
      "Ġsusp": 5666,
      "vie": 5667,
      "Ġ#": 5668,
      "ĠtÃ¢": 5669,
      "Ġinj": 5670,
      "Ġconfiance": 5671,
      "Ġsir": 5672,
      "ĠIf": 5673,
      "aman": 5674,
      "Ġmobil": 5675,
      "wan": 5676,
      "ener": 5677,
      "prises": 5678,
      "ĠMich": 5679,
      "augh": 5680,
      "ependant": 5681,
      "DF": 5682,
      "MP": 5683,
      "ĠCN": 5684,
      "ĠindiquÃ©": 5685,
      "ĠrÃ©al": 5686,
      "ĠON": 5687,
      "rad": 5688,
      "Ġdispos": 5689,
      "Ġalmost": 5690,
      "Ġissued": 5691,
      "Ġcircum": 5692,
      "oor": 5693,
      "Ġfair": 5694,
      "Ġoui": 5695,
      "Ġentreprise": 5696,
      "Ġabsol": 5697,
      "igration": 5698,
      "year": 5699,
      "ising": 5700,
      "Ġsouff": 5701,
      "Ġenvis": 5702,
      "ĠAssociation": 5703,
      "Ġax": 5704,
      "Ġliqu": 5705,
      "Ġgrandes": 5706,
      "Ġthus": 5707,
      "Ġworks": 5708,
      "Ġinvestig": 5709,
      "Ġexcell": 5710,
      "ustral": 5711,
      "Ġtown": 5712,
      "Ġstatement": 5713,
      "Agence": 5714,
      "ĠcompÃ©tences": 5715,
      "ball": 5716,
      "rÃ©s": 5717,
      "legation": 5718,
      "Ġtext": 5719,
      "ured": 5720,
      "ĠsupplÃ©mentaires": 5721,
      "tiveness": 5722,
      "Ġtox": 5723,
      "ares": 5724,
      "ĠdÃ©pl": 5725,
      "Ġmeetings": 5726,
      "Ġlanc": 5727,
      "valuer": 5728,
      "ternal": 5729,
      "Ġobservations": 5730,
      "outer": 5731,
      "Ġpublished": 5732,
      "Ġgrands": 5733,
      "ĠdÃ©clarÃ©": 5734,
      "Ġprinciples": 5735,
      "Ã©tude": 5736,
      "ĠprotÃ©ger": 5737,
      "OÃ¹": 5738,
      "Ġparts": 5739,
      "ĠprÃ©sid": 5740,
      "Ġ37": 5741,
      "clusion": 5742,
      "ĠEd": 5743,
      "Ġ*": 5744,
      "Ġvit": 5745,
      "Ġindividuals": 5746,
      "iÃ©es": 5747,
      "orial": 5748,
      "Ġmedia": 5749,
      "inn": 5750,
      "ĠbÃ¢": 5751,
      "ĠMais": 5752,
      "ĠSoci": 5753,
      "Ġcollabor": 5754,
      "Ġlack": 5755,
      "asons": 5756,
      "Ġpermettant": 5757,
      "Ġessential": 5758,
      "Ġhistory": 5759,
      "Ġguarante": 5760,
      "ĠprÃ©sence": 5761,
      "Ġreduce": 5762,
      "Ġweb": 5763,
      "Ġlabor": 5764,
      "enew": 5765,
      "Ġoperation": 5766,
      "Ġlignes": 5767,
      "ĠfinanciÃ¨res": 5768,
      "Ġfondament": 5769,
      "Me": 5770,
      "ghan": 5771,
      "ĠLA": 5772,
      "Ġapplied": 5773,
      "Ġcivile": 5774,
      "Ġstudents": 5775,
      "ĠMission": 5776,
      "Ġtravel": 5777,
      "Ġethn": 5778,
      "Ġlost": 5779,
      "Ġnations": 5780,
      "Ġprotoc": 5781,
      "Ġcompren": 5782,
      "Ġsupply": 5783,
      "Ġplanification": 5784,
      "Ġrepresentative": 5785,
      "ĠmatÃ©riel": 5786,
      "Ã³": 5787,
      "Ġconstitue": 5788,
      "EA": 5789,
      "ĠimmÃ©di": 5790,
      "Ġlate": 5791,
      "Ġvictimes": 5792,
      "See": 5793,
      "Ġoptions": 5794,
      "Ġjouer": 5795,
      "Ġmilli": 5796,
      "tabl": 5797,
      "ĠHer": 5798,
      "Ġconnais": 5799,
      "Ġharmon": 5800,
      "ague": 5801,
      "Ġrester": 5802,
      "Ġinstrument": 5803,
      "Ġaudit": 5804,
      "ĠprivÃ©": 5805,
      "ged": 5806,
      "Ġhell": 5807,
      "Ġpropose": 5808,
      "Ġcreated": 5809,
      "ĠDem": 5810,
      "Ġchemin": 5811,
      "Ġloin": 5812,
      "EEC": 5813,
      "Ġfaisant": 5814,
      "IG": 5815,
      "Ġlikely": 5816,
      "Ġregulations": 5817,
      "Ġconclusion": 5818,
      "More": 5819,
      "Ġdam": 5820,
      "imination": 5821,
      "Ġcontinued": 5822,
      "Ġdesigned": 5823,
      "Ġbehalf": 5824,
      "ĠOrganization": 5825,
      "Ġconnaissances": 5826,
      "Ġsold": 5827,
      "Ġdescription": 5828,
      "Ġtrue": 5829,
      "Ġden": 5830,
      "Ġvalid": 5831,
      "Ã§ons": 5832,
      "Ġ70": 5833,
      "Ġlangues": 5834,
      "lem": 5835,
      "Ġsavez": 5836,
      "Ġoriginal": 5837,
      "Toutefois": 5838,
      "100": 5839,
      "Ġmeilleure": 5840,
      "intention": 5841,
      "Ġmanque": 5842,
      "ĠYeah": 5843,
      "Ġanswer": 5844,
      "ĠEnvironment": 5845,
      "Get": 5846,
      "Avec": 5847,
      "iche": 5848,
      "ĠConstitution": 5849,
      "Ġbodies": 5850,
      "ico": 5851,
      "Ġexchange": 5852,
      "ĠÃ©missions": 5853,
      "Ġgave": 5854,
      "Ġentendu": 5855,
      "izing": 5856,
      "ĠCO": 5857,
      "sequent": 5858,
      "ĠsuccÃ¨s": 5859,
      "Ġdiscussions": 5860,
      "itter": 5861,
      "Ġfonctionnement": 5862,
      "ĠMonsieur": 5863,
      "ban": 5864,
      "ouverture": 5865,
      "ĠÃ©levÃ©": 5866,
      "Ġintellectu": 5867,
      "intÃ©rieur": 5868,
      "Ġplant": 5869,
      "Ġwhose": 5870,
      "Ġsuccessful": 5871,
      "ison": 5872,
      "orge": 5873,
      "Ġpromot": 5874,
      "Ġrestaur": 5875,
      "right": 5876,
      "Ġresponsabil": 5877,
      "Ġdiverses": 5878,
      "Ġexpend": 5879,
      "entrÃ©e": 5880,
      "Ġcommitment": 5881,
      "ĠsupÃ©rie": 5882,
      "Ġfarm": 5883,
      "ya": 5884,
      "ateral": 5885,
      "government": 5886,
      "ĠAction": 5887,
      "exper": 5888,
      "Ã©galitÃ©": 5889,
      "ĠrÃ©serve": 5890,
      "Ġcroy": 5891,
      "ĠWorking": 5892,
      "Every": 5893,
      "oon": 5894,
      "rehen": 5895,
      "Ġfoot": 5896,
      "uth": 5897,
      "While": 5898,
      "Ġjournal": 5899,
      "Ġconsommation": 5900,
      "uty": 5901,
      "Ġnews": 5902,
      "Ġdirecteur": 5903,
      "PC": 5904,
      "Ġlower": 5905,
      "iments": 5906,
      "Ontario": 5907,
      "ĠAfrican": 5908,
      "Ġstates": 5909,
      "Ġmix": 5910,
      "Ġobsta": 5911,
      "ĠdÃ©lai": 5912,
      "ruption": 5913,
      "DC": 5914,
      "ĠParty": 5915,
      "ova": 5916,
      "Canada": 5917,
      "Ġcontrac": 5918,
      "Ġobjective": 5919,
      "ket": 5920,
      "ouvrir": 5921,
      "ĠdÃ©cidÃ©": 5922,
      "Ġengag": 5923,
      "Ġrendement": 5924,
      "Ġlaisser": 5925,
      "avid": 5926,
      "Ġeffort": 5927,
      "Ġapproxim": 5928,
      "Ġspace": 5929,
      "Ġtableau": 5930,
      "Ġmaterials": 5931,
      "Ġparle": 5932,
      "Ġminute": 5933,
      "asser": 5934,
      "dits": 5935,
      "Ġgam": 5936,
      "ĠÃ©nerg": 5937,
      "Ġoutil": 5938,
      "Ã©quipe": 5939,
      "sec": 5940,
      "Ġmeilleur": 5941,
      "ĠrÃ©glementation": 5942,
      "Sec": 5943,
      "Ġvont": 5944,
      "sement": 5945,
      "ĠMy": 5946,
      "Ġfacilities": 5947,
      "Ġpaper": 5948,
      "anda": 5949,
      "Ġpoor": 5950,
      "Ġul": 5951,
      "Ġwatch": 5952,
      "ĠÃ©vent": 5953,
      "ĠdÃ©sign": 5954,
      "Ġfactors": 5955,
      "Ġprepared": 5956,
      "Ġcondu": 5957,
      "Ġyourself": 5958,
      "selves": 5959,
      "Ġvide": 5960,
      "Ġpriority": 5961,
      "isations": 5962,
      "ĠOttawa": 5963,
      "ĠElle": 5964,
      "Ġthemselves": 5965,
      "car": 5966,
      "ĠMex": 5967,
      "Ġannex": 5968,
      "Ġmentionn": 5969,
      "TM": 5970,
      "oign": 5971,
      "Ġproposals": 5972,
      "ĠprioritÃ©s": 5973,
      "ĠBelg": 5974,
      "Ġquant": 5975,
      "ĠliÃ©es": 5976,
      "anna": 5977,
      "Ġcriteria": 5978,
      "Ġmanifest": 5979,
      "ĠImp": 5980,
      "Ġrural": 5981,
      "Ġinternal": 5982,
      "iet": 5983,
      "Ġ1991": 5984,
      "oncÃ©": 5985,
      "novation": 5986,
      "ĠDon": 5987,
      "Ġfournisse": 5988,
      "Ġvente": 5989,
      "Any": 5990,
      "crit": 5991,
      "ĠaÃ©ri": 5992,
      "Ġinfrastructure": 5993,
      "Ġsolid": 5994,
      "Ġpain": 5995,
      "Ġcomes": 5996,
      "issaire": 5997,
      "Ġbul": 5998,
      "acqu": 5999,
      "ocks": 6000,
      "Ġlongtemps": 6001,
      "Ġmodification": 6002,
      "Ġmusic": 6003,
      "95": 6004,
      "avait": 6005,
      "isÃ©es": 6006,
      "ĠconfÃ©rence": 6007,
      "Ġtemp": 6008,
      "ĠutilisÃ©s": 6009,
      "ently": 6010,
      "Ġstructures": 6011,
      "Intern": 6012,
      "Ġcanadiennes": 6013,
      "Ġkilled": 6014,
      "phas": 6015,
      "urement": 6016,
      "Ġready": 6017,
      "emn": 6018,
      "Ġinvestisse": 6019,
      "Ã¡Ã": 6020,
      "Ġfi": 6021,
      "avi": 6022,
      "Ġsaying": 6023,
      "ĠcoÃ»t": 6024,
      "urch": 6025,
      "PR": 6026,
      "itures": 6027,
      "Ġplac": 6028,
      "ĠChair": 6029,
      "ĠÃ©tabli": 6030,
      "Ġmissions": 6031,
      "ift": 6032,
      "Ġvoulais": 6033,
      "Ġpilot": 6034,
      "ae": 6035,
      "raq": 6036,
      "ĠsecrÃ©": 6037,
      "Dis": 6038,
      "Ġchiff": 6039,
      "Ġforms": 6040,
      "Ġconflict": 6041,
      "Ġtourn": 6042,
      "Ġpeur": 6043,
      "assurance": 6044,
      "Ġcompetition": 6045,
      "Ġaffect": 6046,
      "Ġge": 6047,
      "Ġcheck": 6048,
      "Ġstated": 6049,
      "Ġproportion": 6050,
      "nÃ©": 6051,
      "enant": 6052,
      "ĠnÃ©": 6053,
      "ĠSystem": 6054,
      "antill": 6055,
      "cess": 6056,
      "uelles": 6057,
      "ĠSum": 6058,
      "Ġpret": 6059,
      "Ġchacun": 6060,
      "itime": 6061,
      "Ġvalues": 6062,
      "Ġrequested": 6063,
      "Ġapproche": 6064,
      "Ġconcerns": 6065,
      "occasion": 6066,
      "Ġexact": 6067,
      "Ġcredit": 6068,
      "Ġvision": 6069,
      "ĠCF": 6070,
      "Ġoverall": 6071,
      "Ġrich": 6072,
      "ĠLet": 6073,
      "Ġmorning": 6074,
      "77": 6075,
      "iam": 6076,
      "onti": 6077,
      "ĠUne": 6078,
      "Ġlocation": 6079,
      "Ġconcurrence": 6080,
      "itÃ©e": 6081,
      "magne": 6082,
      "Ġdix": 6083,
      "Ġimportants": 6084,
      "Ġexplain": 6085,
      "Ã©rable": 6086,
      "Ġjudici": 6087,
      "Cont": 6088,
      "cus": 6089,
      "Ġtrust": 6090,
      "ĠColomb": 6091,
      "Ġunderstanding": 6092,
      "Ġenjoy": 6093,
      "ĠDES": 6094,
      "Ġguide": 6095,
      "ION": 6096,
      "Ġoil": 6097,
      "ellig": 6098,
      "euro": 6099,
      "atta": 6100,
      "Ġadmis": 6101,
      "Ġupd": 6102,
      "ĠChe": 6103,
      "Ġoccasion": 6104,
      "Ġconducted": 6105,
      "Ġnice": 6106,
      "ĠDans": 6107,
      "onner": 6108,
      "ĠOff": 6109,
      "1999": 6110,
      "itage": 6111,
      "Ġresponsables": 6112,
      "ĠBud": 6113,
      "Ġidenti": 6114,
      "ĠStrateg": 6115,
      "Ġprices": 6116,
      "Ġchim": 6117,
      "ĠThere": 6118,
      "Ġprinciple": 6119,
      "Allez": 6120,
      "Ac": 6121,
      "eci": 6122,
      "Ġspirit": 6123,
      "Ġajout": 6124,
      "Ġknew": 6125,
      "Ġrent": 6126,
      "Ġinitial": 6127,
      "Ma": 6128,
      "Ġbed": 6129,
      "Ġvac": 6130,
      "Ġarmes": 6131,
      "Since": 6132,
      "Ġprocesses": 6133,
      "ĠInstitute": 6134,
      "Ġexpressed": 6135,
      "Ġclos": 6136,
      "ring": 6137,
      "Ġtarif": 6138,
      "Ġsle": 6139,
      "Ġrelatif": 6140,
      "ĠSam": 6141,
      "Ġthroughout": 6142,
      "Ġmedical": 6143,
      "ensus": 6144,
      "iving": 6145,
      "Ġcontac": 6146,
      "ĠbÃ©nÃ©fici": 6147,
      "90": 6148,
      "nelles": 6149,
      "Ã©th": 6150,
      "adoption": 6151,
      "Ġpubliques": 6152,
      "Ġfamili": 6153,
      "Ġremplac": 6154,
      "inte": 6155,
      "know": 6156,
      "erais": 6157,
      "Ġchallenges": 6158,
      "ocratic": 6159,
      "ĠtroisiÃ¨me": 6160,
      "According": 6161,
      "Ġwasn": 6162,
      "ulÃ©": 6163,
      "Ġsignif": 6164,
      "rehensive": 6165,
      "wo": 6166,
      "abilities": 6167,
      "Ġrapidement": 6168,
      "etÃ©": 6169,
      "Merci": 6170,
      "assi": 6171,
      "Ġprol": 6172,
      "ĠrÃ©alisation": 6173,
      "ynam": 6174,
      "Ġlaisse": 6175,
      "Ġuh": 6176,
      "Ġnavig": 6177,
      "uilding": 6178,
      "Tr": 6179,
      "itiÃ©": 6180,
      "tivity": 6181,
      "placement": 6182,
      "expÃ©rience": 6183,
      "obil": 6184,
      "tructions": 6185,
      "Ġquelle": 6186,
      "Åĵur": 6187,
      "Ġboard": 6188,
      "Ġpeup": 6189,
      "Ġtraffic": 6190,
      "Ġmatters": 6191,
      "Ġraisons": 6192,
      "eless": 6193,
      "Ġinterests": 6194,
      "Ġjuris": 6195,
      "ori": 6196,
      "iction": 6197,
      "eler": 6198,
      "Ġense": 6199,
      "Ġlettre": 6200,
      "ritannique": 6201,
      "aie": 6202,
      "ĠHouse": 6203,
      "Ġexamen": 6204,
      "Ġprofessional": 6205,
      "Ġvillage": 6206,
      "tigation": 6207,
      "Ġhumaines": 6208,
      "Ġstrengthen": 6209,
      "Ġtas": 6210,
      "going": 6211,
      "Ġgame": 6212,
      "Ġconservation": 6213,
      "Ġthank": 6214,
      "ĠPaul": 6215,
      "ĠcatÃ©gorie": 6216,
      "41": 6217,
      "ka": 6218,
      "Ġtakes": 6219,
      "Ġmode": 6220,
      "Ġcycle": 6221,
      "aider": 6222,
      "ĠprÃ©vu": 6223,
      "dra": 6224,
      "anks": 6225,
      "Ġexperien": 6226,
      "ĠsÃ©ance": 6227,
      "Ġdraw": 6228,
      "fl": 6229,
      "Ġchercher": 6230,
      "Ġsoft": 6231,
      "Ġcircumstances": 6232,
      "mail": 6233,
      "Ġextr": 6234,
      "Ġcentrale": 6235,
      "Ġpeine": 6236,
      "Ġletter": 6237,
      "Ġconsulta": 6238,
      "ĠToronto": 6239,
      "ĠpauvretÃ©": 6240,
      "riel": 6241,
      "ĠSup": 6242,
      "ĠET": 6243,
      "Ġcomptes": 6244,
      "Ġremerci": 6245,
      "Ġwife": 6246,
      "ĠMus": 6247,
      "atement": 6248,
      "ĠLab": 6249,
      "ĠprÃ©voit": 6250,
      "lectronic": 6251,
      "Ġmouve": 6252,
      "ouss": 6253,
      "Ġstep": 6254,
      "Ġflex": 6255,
      "Ġbaby": 6256,
      "Ġcovered": 6257,
      "Ġavanc": 6258,
      "Ġoption": 6259,
      "Ġchapitre": 6260,
      "Ġpuisse": 6261,
      "Ġbillion": 6262,
      "ĠCentral": 6263,
      "Ġfinancier": 6264,
      "Ġvoudrais": 6265,
      "Ġrelatifs": 6266,
      "Ġbit": 6267,
      "Ġgender": 6268,
      "umer": 6269,
      "rank": 6270,
      "ĠintÃ©rÃªts": 6271,
      "ĠGermany": 6272,
      "acts": 6273,
      "ĠcaractÃ¨re": 6274,
      "ĠHIV": 6275,
      "ĠPat": 6276,
      "Ġallez": 6277,
      "Ġdrog": 6278,
      "Ġadoption": 6279,
      "63": 6280,
      "Ġdetermine": 6281,
      "forcement": 6282,
      "ĠmÃ©thode": 6283,
      "98": 6284,
      "Ġterrain": 6285,
      "Ġclearly": 6286,
      "hÃ©sion": 6287,
      "UL": 6288,
      "rite": 6289,
      "Ġartis": 6290,
      "ĠÃ©vÃ©": 6291,
      "Ġdefined": 6292,
      "SE": 6293,
      "Ġreasons": 6294,
      "Ġlocated": 6295,
      "Ġpun": 6296,
      "ĠCON": 6297,
      "encontre": 6298,
      "Ġcompleted": 6299,
      "ĠÃ©tude": 6300,
      "????": 6301,
      "Ġautant": 6302,
      "ĠcrÃ©dit": 6303,
      "ĠEN": 6304,
      "Ġestablishment": 6305,
      "Ġfilles": 6306,
      "ĠSm": 6307,
      "ĠAre": 6308,
      "ĠJourn": 6309,
      "histoire": 6310,
      "Table": 6311,
      "ĠCH": 6312,
      "ĠChina": 6313,
      "ĠQuebec": 6314,
      "ĠdÃ©lÃ©gation": 6315,
      "Depuis": 6316,
      "Here": 6317,
      "Ġaccident": 6318,
      "Ġpursuant": 6319,
      "Ġinstallations": 6320,
      "iennes": 6321,
      "Ġkid": 6322,
      "Ġrelationship": 6323,
      "Ġanglais": 6324,
      "Ġart": 6325,
      "Ġquick": 6326,
      "Ġsuivre": 6327,
      "cal": 6328,
      "ores": 6329,
      "Ġcontained": 6330,
      "ĠForm": 6331,
      "Ġstage": 6332,
      "Ġbalance": 6333,
      "Ġinqu": 6334,
      "ĠespÃ¨ces": 6335,
      "Ġreduction": 6336,
      "Ġsearch": 6337,
      "Ġapproval": 6338,
      "66": 6339,
      "From": 6340,
      "Ġcoh": 6341,
      "Ġarrive": 6342,
      "RÃ©": 6343,
      "Ġdig": 6344,
      "Ġrule": 6345,
      "iency": 6346,
      "Ġcollection": 6347,
      "Ġcaus": 6348,
      "Ġmultil": 6349,
      "Ġcoordin": 6350,
      "ĠmÃ©dias": 6351,
      "Mar": 6352,
      "atoires": 6353,
      "Ġinterven": 6354,
      "cepti": 6355,
      "ĠstratÃ©gique": 6356,
      "rig": 6357,
      "tiful": 6358,
      "Ġpurch": 6359,
      "mettre": 6360,
      "rÃ©ci": 6361,
      "Ġsett": 6362,
      "itz": 6363,
      "Ġbank": 6364,
      "Ġfail": 6365,
      "ĠdÃ©taill": 6366,
      "ĠSl": 6367,
      "Ġ48": 6368,
      "Ġlaws": 6369,
      "Ġdossier": 6370,
      "Ab": 6371,
      "Main": 6372,
      "net": 6373,
      "Ġled": 6374,
      "ram": 6375,
      "ĠbÃ©nÃ©fic": 6376,
      "Ġcriminal": 6377,
      "ray": 6378,
      "Ġtoutefois": 6379,
      "Ġaccept": 6380,
      "iddle": 6381,
      "Ġactuelle": 6382,
      "Ġcanadiens": 6383,
      "Ġcontenu": 6384,
      "oine": 6385,
      "Ġsat": 6386,
      "Ġcir": 6387,
      "Ġprofit": 6388,
      "ĠMinistry": 6389,
      "ombre": 6390,
      "apter": 6391,
      "Ġgovernments": 6392,
      "ĠDo": 6393,
      "enfant": 6394,
      "ĠprÃ©vues": 6395,
      "ĠTrade": 6396,
      "].": 6397,
      "urgence": 6398,
      "EU": 6399,
      "Ġvacc": 6400,
      "Ġrecherches": 6401,
      "Ġidentify": 6402,
      "Cependant": 6403,
      "enquÃªte": 6404,
      "Ġmaladie": 6405,
      "mosph": 6406,
      "Ġplais": 6407,
      "ĠcollectivitÃ©s": 6408,
      "Ġchem": 6409,
      "Ġstrategic": 6410,
      "Ġ33": 6411,
      "Ġdiver": 6412,
      "Ġdistance": 6413,
      "Ġoccur": 6414,
      "objectif": 6415,
      "Ġclean": 6416,
      "Ġtests": 6417,
      "Ġhors": 6418,
      "ĠCri": 6419,
      "Ġrelativement": 6420,
      "Ġball": 6421,
      "Ġpresque": 6422,
      "ĠsÃ©par": 6423,
      "Ġsubstanti": 6424,
      "Ġadjust": 6425,
      "cos": 6426,
      "wise": 6427,
      "ĠNor": 6428,
      "Ġstri": 6429,
      "Ġconnec": 6430,
      "Ã©chelle": 6431,
      "Ġrapide": 6432,
      "Ġdelivery": 6433,
      "Ġbure": 6434,
      "Ġways": 6435,
      "ĠHa": 6436,
      "Ġamended": 6437,
      "Ġavantages": 6438,
      "ĠrÃ©gional": 6439,
      "Ġadded": 6440,
      "ĠSecretariat": 6441,
      "Ġmethods": 6442,
      "Ġ34": 6443,
      "Ġamis": 6444,
      "Ġsortir": 6445,
      "Ġcris": 6446,
      "ancial": 6447,
      "Ġcontain": 6448,
      "Ġstake": 6449,
      "holders": 6450,
      "96": 6451,
      "Ph": 6452,
      "Ġconven": 6453,
      "irth": 6454,
      "Ã¨que": 6455,
      "ĠAsi": 6456,
      "Ġterres": 6457,
      "porate": 6458,
      "Ġsalle": 6459,
      "avenir": 6460,
      "arning": 6461,
      "Ġwants": 6462,
      "ĠdÃ©finition": 6463,
      "Maybe": 6464,
      "Ġappliqu": 6465,
      "Ġeasy": 6466,
      "ressive": 6467,
      "ĠKingdom": 6468,
      "Of": 6469,
      "ena": 6470,
      "ĠNet": 6471,
      "Ġwebsite": 6472,
      "Ġcouple": 6473,
      "Ã¼": 6474,
      "ĠfÃ©l": 6475,
      "ĠForum": 6476,
      "Ġindicated": 6477,
      "Ġrenforcement": 6478,
      "Ġsensibil": 6479,
      "Ġclairement": 6480,
      "75": 6481,
      "Ġdevez": 6482,
      "ibility": 6483,
      "Ġdoute": 6484,
      "Ġpositions": 6485,
      "utÃ©": 6486,
      "ĠRel": 6487,
      "Ġmajority": 6488,
      "Ġwond": 6489,
      "identi": 6490,
      "ustri": 6491,
      "Ġ32": 6492,
      "âĢĿ.": 6493,
      "ĠThey": 6494,
      "Ġindiqu": 6495,
      "Ġindustrial": 6496,
      "ĠRoyaume": 6497,
      "riers": 6498,
      "Ġexpect": 6499,
      "oba": 6500,
      "Cons": 6501,
      "ĠAu": 6502,
      "Ġdirectr": 6503,
      "ĠÃ©valuation": 6504,
      "Ġnotice": 6505,
      "Ġcreat": 6506,
      "Ã¨les": 6507,
      "Ġ75": 6508,
      "Ġsubstance": 6509,
      "Ġhospital": 6510,
      "Ġindependent": 6511,
      "Ġsize": 6512,
      "Ġcancer": 6513,
      "Ġtuer": 6514,
      "Ġsemaines": 6515,
      "Ġcomplain": 6516,
      "ĠAuthor": 6517,
      "ĠPacif": 6518,
      "inal": 6519,
      "Ġobjectif": 6520,
      "Ġpriorities": 6521,
      "Ġweeks": 6522,
      "Ġyeux": 6523,
      "Ġextent": 6524,
      "Ġmaintien": 6525,
      "Ġbeginning": 6526,
      "ĠAlle": 6527,
      "anche": 6528,
      "Ġmg": 6529,
      "appr": 6530,
      "Ġintended": 6531,
      "na": 6532,
      "Ġconcept": 6533,
      "lÃł": 6534,
      "vest": 6535,
      "visory": 6536,
      "ĠJapan": 6537,
      "cont": 6538,
      "Ġnor": 6539,
      "ancing": 6540,
      "Ã©taires": 6541,
      "ployment": 6542,
      "Ġarrangements": 6543,
      "ky": 6544,
      "ĠStu": 6545,
      "Ġcommitted": 6546,
      "Ġdetermined": 6547,
      "Ġpeuple": 6548,
      "Ġnorth": 6549,
      "ĠNot": 6550,
      "ĠgÃ©nÃ©ralement": 6551,
      "Ġlesquelles": 6552,
      "Ġpostes": 6553,
      "Ġmaintenance": 6554,
      "ĠÃ©lectronique": 6555,
      "Man": 6556,
      "ĠrÃ©d": 6557,
      "Ġrespective": 6558,
      "Ġgaran": 6559,
      "ĠmajoritÃ©": 6560,
      "Afrique": 6561,
      "ĠprÃ©cis": 6562,
      "ĠrÃ©unions": 6563,
      "42": 6564,
      "ĠMac": 6565,
      "ĠproposÃ©": 6566,
      "Ġfaciliter": 6567,
      "TER": 6568,
      "Ã©tr": 6569,
      "outes": 6570,
      "Ġlocaux": 6571,
      "Ġmarkets": 6572,
      "lobal": 6573,
      "Ġdepartment": 6574,
      "Ġyouth": 6575,
      "Ġemphas": 6576,
      "ĠChild": 6577,
      "limin": 6578,
      "Ã©lÃ©": 6579,
      "ĠdÃ©pend": 6580,
      "97": 6581,
      "verty": 6582,
      "Ġtravaille": 6583,
      "80": 6584,
      "Ġvise": 6585,
      "Ġgars": 6586,
      "Ã©rant": 6587,
      "Ġnuclear": 6588,
      "Other": 6589,
      "Ġfaits": 6590,
      "racy": 6591,
      "New": 6592,
      "ĠpossibilitÃ©s": 6593,
      "Son": 6594,
      "Ã§u": 6595,
      "oure": 6596,
      "Ġlocales": 6597,
      "Ġhands": 6598,
      "Ġx": 6599,
      "Ġdynam": 6600,
      "Ġmas": 6601,
      "Ġbout": 6602,
      "Ã©quip": 6603,
      "Ġpoverty": 6604,
      "quet": 6605,
      "Ġelements": 6606,
      "Ġwaste": 6607,
      "Ġcarte": 6608,
      "Ġaccords": 6609,
      "âĢĿ,": 6610,
      "ĠWill": 6611,
      "Ġtransform": 6612,
      "uxem": 6613,
      "Ġconstr": 6614,
      "Ġweap": 6615,
      "2011": 6616,
      "ĠdÃ©cl": 6617,
      "Ġfollows": 6618,
      "ĠcommunautÃ©s": 6619,
      "ĠAND": 6620,
      "ny": 6621,
      "rief": 6622,
      "Ġnord": 6623,
      "Ġwritten": 6624,
      "Ġmyself": 6625,
      "overy": 6626,
      "emp": 6627,
      "partement": 6628,
      "Ġtenue": 6629,
      "Ġstarted": 6630,
      "SS": 6631,
      "ICE": 6632,
      "ĠBul": 6633,
      "Ġprobably": 6634,
      "Ġlaunch": 6635,
      "ĠMont": 6636,
      "auche": 6637,
      "Ġcommence": 6638,
      "Ġ<": 6639,
      "ĠChine": 6640,
      "ground": 6641,
      "Ġdirectives": 6642,
      "cteur": 6643,
      "edu": 6644,
      "ucking": 6645,
      "PA": 6646,
      "ĠPan": 6647,
      "Ġpayment": 6648,
      "bas": 6649,
      "ĠForce": 6650,
      "Ġrequires": 6651,
      "urÃ©": 6652,
      "uste": 6653,
      "ĠFederal": 6654,
      "angu": 6655,
      "Ġsuscepti": 6656,
      "ĠjournÃ©e": 6657,
      "mun": 6658,
      "andis": 6659,
      "ĠLib": 6660,
      "Ã¨rement": 6661,
      "Ġadequ": 6662,
      "Ġdocumentation": 6663,
      "Ġlives": 6664,
      "Ġdescribed": 6665,
      "Good": 6666,
      "itarian": 6667,
      "Ã¨ce": 6668,
      "Ġchambre": 6669,
      "Ġserve": 6670,
      "Ġsectors": 6671,
      "governmental": 6672,
      "ĠPR": 6673,
      "ĠWomen": 6674,
      "ĠMrs": 6675,
      "Ġeaux": 6676,
      "Ġcomprehensive": 6677,
      "Ġimpossible": 6678,
      "Further": 6679,
      "Ġerre": 6680,
      "Ġquite": 6681,
      "amm": 6682,
      "ĠTable": 6683,
      "ĠmÃ©dic": 6684,
      "istrement": 6685,
      "ĠministÃ¨res": 6686,
      "Uni": 6687,
      "Ġcrimes": 6688,
      "Ġporter": 6689,
      "Ġviens": 6690,
      "Ġauxqu": 6691,
      "Ġprovis": 6692,
      "Ġpetits": 6693,
      "Te": 6694,
      "areness": 6695,
      "abin": 6696,
      "ĠamÃ©lior": 6697,
      "ĠAng": 6698,
      "Ġpatient": 6699,
      "Ca": 6700,
      "uire": 6701,
      "Ġang": 6702,
      "Ġrenew": 6703,
      "Ġservir": 6704,
      "43": 6705,
      "Ġcompeti": 6706,
      "Gr": 6707,
      "umes": 6708,
      "augment": 6709,
      "Ġmanner": 6710,
      "Ġmaybe": 6711,
      "read": 6712,
      "Ġphysical": 6713,
      "Ġdot": 6714,
      "agraph": 6715,
      "Ġanalyse": 6716,
      "Ġrevenus": 6717,
      "ki": 6718,
      "Ġprot": 6719,
      "Ġformes": 6720,
      "ĠdÃ©g": 6721,
      "Ġmandate": 6722,
      "onie": 6723,
      "isition": 6724,
      "ontÃ©": 6725,
      "book": 6726,
      "Ġ00": 6727,
      "Ġnutri": 6728,
      "Ġpetites": 6729,
      "Ġfreedom": 6730,
      "Ġdangere": 6731,
      "Ġrejet": 6732,
      "ĠreprÃ©sente": 6733,
      "ĠvÃ©hicules": 6734,
      "Ġsense": 6735,
      "Ġthinking": 6736,
      "Ġrenouvel": 6737,
      "Ġcommunautaires": 6738,
      "Ġparam": 6739,
      "ĠÃ©t": 6740,
      "acte": 6741,
      "Ġsufficient": 6742,
      "Ġseries": 6743,
      "2010": 6744,
      "Ġavoid": 6745,
      "Ġentitled": 6746,
      "ĠcrÃ©Ã©": 6747,
      "ircraft": 6748,
      "UT": 6749,
      "Ġcompliance": 6750,
      "Ġengine": 6751,
      "ghanistan": 6752,
      "Ġreduc": 6753,
      "Ã¨tes": 6754,
      "ĠMa": 6755,
      "ĠWas": 6756,
      "Ġnotif": 6757,
      "Ġinfluence": 6758,
      "pendant": 6759,
      "Ġregular": 6760,
      "Ġamendments": 6761,
      "Ġpaiement": 6762,
      "ĠindÃ©pend": 6763,
      "Ġcong": 6764,
      "ĠconnaÃ®tre": 6765,
      "Ġeveryone": 6766,
      "Ġprimary": 6767,
      "**": 6768,
      "Ġmagn": 6769,
      "Ġevalu": 6770,
      "Ġextre": 6771,
      "ĠEast": 6772,
      "Ġpermit": 6773,
      "Ġmatch": 6774,
      "Ġap": 6775,
      "itoba": 6776,
      "Ġeduc": 6777,
      "ĠMor": 6778,
      "Ġcrise": 6779,
      "coute": 6780,
      "dÃ©": 6781,
      "auteur": 6782,
      "Ġtransfert": 6783,
      "install": 6784,
      "70": 6785,
      "elt": 6786,
      "rif": 6787,
      "oved": 6788,
      "ĠYes": 6789,
      "Ġscol": 6790,
      "ĠmatiÃ¨res": 6791,
      "Ġdeg": 6792,
      "Ġ300": 6793,
      "Ġrefus": 6794,
      "ĠlumiÃ¨re": 6795,
      "amÃ©liorer": 6796,
      "ĠplaÃ®t": 6797,
      "Ġfaud": 6798,
      "Ġdoctor": 6799,
      "orient": 6800,
      "ĠTV": 6801,
      "Ġtransf": 6802,
      "Ã¢ge": 6803,
      "ommunications": 6804,
      "reci": 6805,
      "Ġretra": 6806,
      "ĠLond": 6807,
      "Ġmarque": 6808,
      "Ġcontribute": 6809,
      "Ġoperating": 6810,
      "Tous": 6811,
      "Ġequal": 6812,
      "oz": 6813,
      "Ġremains": 6814,
      "Ġdispose": 6815,
      "Ġpresse": 6816,
      "Ġpharm": 6817,
      "Doc": 6818,
      "ael": 6819,
      "ĠBen": 6820,
      "ĠBer": 6821,
      "Ġenfant": 6822,
      "imes": 6823,
      "Ġappeal": 6824,
      "Ġconstat": 6825,
      "owers": 6826,
      "88": 6827,
      "AB": 6828,
      "ommet": 6829,
      "aper": 6830,
      "load": 6831,
      "Ġfit": 6832,
      "Ġwin": 6833,
      "ilt": 6834,
      "Ġenable": 6835,
      "endement": 6836,
      "Ġdispl": 6837,
      "Ġconsolid": 6838,
      "EX": 6839,
      "light": 6840,
      "Ġdevait": 6841,
      "Ġmatin": 6842,
      "Ġradi": 6843,
      "Ġgarantir": 6844,
      "ĠLi": 6845,
      "Ġproduced": 6846,
      "Ġinfec": 6847,
      "Ġmilitaire": 6848,
      "Ġsatisfaction": 6849,
      "Ġsuivante": 6850,
      "Ġfronti": 6851,
      "askat": 6852,
      "ĠresponsabilitÃ©s": 6853,
      "MÃªme": 6854,
      "Ġtransmission": 6855,
      "ĠJean": 6856,
      "Ġdistin": 6857,
      ".-": 6858,
      "Ġgone": 6859,
      "Ġconcentration": 6860,
      "investissement": 6861,
      "isms": 6862,
      "ĠmÃªmes": 6863,
      "Ġfro": 6864,
      "Ġquo": 6865,
      "Ġexception": 6866,
      "During": 6867,
      "Ġsan": 6868,
      "Ġlab": 6869,
      "Regard": 6870,
      "Ġaddressed": 6871,
      "EMENT": 6872,
      "ĠchargÃ©": 6873,
      "ĠnÃ©gociations": 6874,
      "Ġfamilies": 6875,
      "ĠMill": 6876,
      "Ġcontro": 6877,
      "ĠKe": 6878,
      "fr": 6879,
      "Ġintit": 6880,
      "Ġtaille": 6881,
      "Ġoptim": 6882,
      "Ġcontribuer": 6883,
      "Ġcommittee": 6884,
      "Ġrequests": 6885,
      "Ġaffected": 6886,
      "Ġdepartments": 6887,
      "Donc": 6888,
      "oral": 6889,
      "Ġdirige": 6890,
      "Car": 6891,
      "erez": 6892,
      "Ġmontre": 6893,
      "Ġstatistiques": 6894,
      "Ġundertaking": 6895,
      "ĠÃĩa": 6896,
      "raine": 6897,
      "Ġbeautiful": 6898,
      "Ġprevention": 6899,
      "AmÃ©rique": 6900,
      "54": 6901,
      "yond": 6902,
      "ĠEs": 6903,
      "Ġami": 6904,
      "ĠÃ©tablissements": 6905,
      "Ġchoice": 6906,
      "Ġpourra": 6907,
      "Ã¶": 6908,
      "ĠPas": 6909,
      "ĠProtection": 6910,
      "Date": 6911,
      "Ġwouldn": 6912,
      "Ġconseils": 6913,
      "Ġdebate": 6914,
      "Ġlesquels": 6915,
      "tims": 6916,
      "exist": 6917,
      "Ġpouvons": 6918,
      "ĠrÃ©fug": 6919,
      "Ġstim": 6920,
      "Ġhous": 6921,
      "IDS": 6922,
      "effec": 6923,
      "ibilitÃ©": 6924,
      "Ġnour": 6925,
      "Ġvia": 6926,
      "Ġgenerally": 6927,
      "mÃ©di": 6928,
      "Ġparent": 6929,
      "Ġobjet": 6930,
      "ĠmÃ©canismes": 6931,
      "Ġparl": 6932,
      "idential": 6933,
      "Ġfamilles": 6934,
      "Ġallowed": 6935,
      "Ġdie": 6936,
      "erait": 6937,
      "roÃ®tre": 6938,
      "Ġsole": 6939,
      "Ġconception": 6940,
      "Ġoffers": 6941,
      "Although": 6942,
      "Comp": 6943,
      "Ġattach": 6944,
      "LL": 6945,
      "Sub": 6946,
      "Ġpages": 6947,
      "Ġcorrect": 6948,
      "ĠStatis": 6949,
      "Ġsanc": 6950,
      "Ġunif": 6951,
      "Ġcependant": 6952,
      "Ġbehind": 6953,
      "Ġterrorisme": 6954,
      "rication": 6955,
      "ĠSaf": 6956,
      "Ġ55": 6957,
      "Ġrecommended": 6958,
      "ĠsupÃ©rieur": 6959,
      "Ġguidelines": 6960,
      "igible": 6961,
      "amÃ©lioration": 6962,
      "Ã´tel": 6963,
      "Ġimplemented": 6964,
      "ĠtÃ©lÃ©phone": 6965,
      "RA": 6966,
      "tiles": 6967,
      "Ġadult": 6968,
      "Ġsupported": 6969,
      "Elles": 6970,
      "Ġability": 6971,
      "Ġestime": 6972,
      "Ġdisposi": 6973,
      "Ġobligation": 6974,
      "Ġassign": 6975,
      "Ġbecame": 6976,
      "Ġagricultural": 6977,
      "Ġdistr": 6978,
      "Ġcarb": 6979,
      "Ġimportantes": 6980,
      "Ġbreve": 6981,
      "ĠdÃ©n": 6982,
      "cluding": 6983,
      "Ġgirls": 6984,
      "arme": 6985,
      "operation": 6986,
      "ĠBra": 6987,
      "Ġdose": 6988,
      "Ġram": 6989,
      "ĠCB": 6990,
      "Ġsubsi": 6991,
      "Ġsociales": 6992,
      "ĠrÃ©sultat": 6993,
      "ĠMod": 6994,
      "Ġoperational": 6995,
      "ĠDavid": 6996,
      "ĠVIH": 6997,
      "Ġhandic": 6998,
      "intÃ©gration": 6999,
      "Ġaugmentation": 7000,
      "ourir": 7001,
      "Ġperdu": 7002,
      "Ġparfait": 7003,
      "Ġanyone": 7004,
      "Ġshows": 7005,
      "ĠspÃ©cifiques": 7006,
      "ĠProf": 7007,
      "ĠstratÃ©gies": 7008,
      "pid": 7009,
      "ĠÃ¢g": 7010,
      "gent": 7011,
      "Ġwanna": 7012,
      "Ã¨nes": 7013,
      "Ġsoumis": 7014,
      "Ġhyp": 7015,
      "Ġvite": 7016,
      "ĠArab": 7017,
      "ĠPRO": 7018,
      "lying": 7019,
      "ĠRE": 7020,
      "Ġcool": 7021,
      "ĠdÃ©mar": 7022,
      "ĠRussie": 7023,
      "Ġhaute": 7024,
      "Ġperspective": 7025,
      "comes": 7026,
      "Ġcreation": 7027,
      "Ġleadership": 7028,
      "Ġunit": 7029,
      "rÃ©g": 7030,
      "eping": 7031,
      "rons": 7032,
      "Ġpath": 7033,
      "Ġnam": 7034,
      "Ġinterview": 7035,
      "Ġcandidats": 7036,
      "Ġfiscal": 7037,
      "ded": 7038,
      "ĠcÃ©l": 7039,
      "Ġfou": 7040,
      "Ġprovenant": 7041,
      "Ġfollowed": 7042,
      "Ġbur": 7043,
      "Ġexceed": 7044,
      "Ġkil": 7045,
      "ĠVer": 7046,
      "Ġjuge": 7047,
      "ĠBanque": 7048,
      "enreg": 7049,
      "tead": 7050,
      "Ġneg": 7051,
      "Ġcompter": 7052,
      "Ġsurvey": 7053,
      "Ġsimplement": 7054,
      "Ġprogramming": 7055,
      "uxembourg": 7056,
      "aurais": 7057,
      "Ġdisponible": 7058,
      "Rapp": 7059,
      "Tra": 7060,
      "Ġsouth": 7061,
      "uler": 7062,
      "Ġinterne": 7063,
      "Ġconsent": 7064,
      "Ġcrisis": 7065,
      "band": 7066,
      "agent": 7067,
      "Ã©cole": 7068,
      "Ġbecom": 7069,
      "Ġmaladies": 7070,
      "Ġappoint": 7071,
      "Ġclimate": 7072,
      "ribution": 7073,
      "ĠColumb": 7074,
      "Ġcirculation": 7075,
      "Ġconnaissance": 7076,
      "trÃ©al": 7077,
      "Ġtransports": 7078,
      "pa": 7079,
      "Ġliens": 7080,
      "adem": 7081,
      "Ġhumains": 7082,
      "ĠtÃ©lÃ©c": 7083,
      "Ġclaims": 7084,
      "Ġinside": 7085,
      "Ã¨se": 7086,
      "ĠprÃ©sentation": 7087,
      "Ġdevenir": 7088,
      "Ġimage": 7089,
      "Ġcontribu": 7090,
      "Ġspeed": 7091,
      "Ġskills": 7092,
      "ĠcommencÃ©": 7093,
      "67": 7094,
      "Ġplaces": 7095,
      "ĠempÃª": 7096,
      "self": 7097,
      "isent": 7098,
      "cemment": 7099,
      "Ġcomments": 7100,
      "Ġweight": 7101,
      "Ġpressure": 7102,
      "ĠmÃ©dicaments": 7103,
      "Ġnation": 7104,
      "Ġrig": 7105,
      "Ġalthough": 7106,
      "Ġfeed": 7107,
      "Ġenqu": 7108,
      "ĠIV": 7109,
      "Ġphone": 7110,
      "Commission": 7111,
      "Ġbus": 7112,
      "Ġshown": 7113,
      "ierre": 7114,
      "affaires": 7115,
      "td": 7116,
      "berg": 7117,
      "Ġsymb": 7118,
      "Ġrefuge": 7119,
      "ivalent": 7120,
      "ral": 7121,
      "Ġelect": 7122,
      "Ġbra": 7123,
      "Ġparlement": 7124,
      "quence": 7125,
      "Ġmovement": 7126,
      "ĠpubliÃ©": 7127,
      "Ġsteps": 7128,
      "hood": 7129,
      "ĠdÃ©t": 7130,
      "ĠWell": 7131,
      "Ġusers": 7132,
      "ĠSantÃ©": 7133,
      "Ġplas": 7134,
      "Ġinvestigation": 7135,
      "Ġphotos": 7136,
      "Ġgarde": 7137,
      ")?": 7138,
      "ĠCent": 7139,
      "ĠparlÃ©": 7140,
      "ulaires": 7141,
      "onses": 7142,
      "Ġformat": 7143,
      "His": 7144,
      "UM": 7145,
      "order": 7146,
      "Ġguess": 7147,
      "Ġhappy": 7148,
      "ĠtÃ©lÃ©v": 7149,
      "ĠPalestin": 7150,
      "Ġsend": 7151,
      "ulent": 7152,
      "Ġfonctionnaires": 7153,
      "Ġatteindre": 7154,
      "ĠProtocol": 7155,
      "ij": 7156,
      "Ġaircraft": 7157,
      "ĠsiÃ¨": 7158,
      "Ġconnection": 7159,
      "2013": 7160,
      "Ġphysique": 7161,
      "Ġdiplom": 7162,
      "rich": 7163,
      "Ġtraditional": 7164,
      "ĠprÃªt": 7165,
      "Ġvehicle": 7166,
      "Ġdisease": 7167,
      "Ġpretty": 7168,
      "Ġefficient": 7169,
      "Ġcharges": 7170,
      "Ġstrategies": 7171,
      "Ġcopy": 7172,
      "Ġuniquement": 7173,
      "Ġconduct": 7174,
      "ador": 7175,
      "iliation": 7176,
      "Ġmid": 7177,
      "Ġbirth": 7178,
      "Ġcontraire": 7179,
      "ville": 7180,
      "ĠdÃ©part": 7181,
      "Ġcompared": 7182,
      "alls": 7183,
      "Ġjeune": 7184,
      "assistance": 7185,
      "Ġdetailed": 7186,
      "Ġmauvais": 7187,
      "aughter": 7188,
      "uits": 7189,
      "anim": 7190,
      "Ġmec": 7191,
      "Ġnomm": 7192,
      "ettre": 7193,
      "Dire": 7194,
      "Ke": 7195,
      "Ġsea": 7196,
      "Notre": 7197,
      "Ġdoor": 7198,
      "IE": 7199,
      "Ġfle": 7200,
      "Ġexcep": 7201,
      "ĠdÃ©mon": 7202,
      "Ġprochaine": 7203,
      "Ġtools": 7204,
      "Ġcollective": 7205,
      "Ġsport": 7206,
      "Ġrail": 7207,
      "Ġbelie": 7208,
      "Ġappare": 7209,
      "Auc": 7210,
      "Ġadress": 7211,
      "Ġworked": 7212,
      "ĠrÃ©aliser": 7213,
      "Ġvivre": 7214,
      "Ġdemain": 7215,
      "Deux": 7216,
      "Ġannuel": 7217,
      "Ġpoids": 7218,
      "Ġra": 7219,
      "Ġstory": 7220,
      "Ġapproximately": 7221,
      "ault": 7222,
      "Ġpic": 7223,
      "identif": 7224,
      "oto": 7225,
      "Ġviolations": 7226,
      "Ġconsommateurs": 7227,
      "Ġmachine": 7228,
      "Ġvend": 7229,
      "ancy": 7230,
      "Ġimag": 7231,
      "ĠactivitÃ©": 7232,
      "Ġcapable": 7233,
      "Ġgrave": 7234,
      "NA": 7235,
      "ym": 7236,
      "ĠrÃ©forme": 7237,
      "Ġconstruc": 7238,
      "Ġign": 7239,
      "Ġdesc": 7240,
      "ums": 7241,
      "ĠRapporteur": 7242,
      "roy": 7243,
      "Ġpresence": 7244,
      "once": 7245,
      "enge": 7246,
      "icite": 7247,
      "pper": 7248,
      "Ġmilliards": 7249,
      "olf": 7250,
      "ĠIraq": 7251,
      "ĠOb": 7252,
      "Ġentry": 7253,
      "Ã´m": 7254,
      "Ġpollution": 7255,
      "ham": 7256,
      "Ġ01": 7257,
      "tiss": 7258,
      "Ġhydro": 7259,
      "Ġoubl": 7260,
      "Ã©tation": 7261,
      "atever": 7262,
      "uct": 7263,
      "ainc": 7264,
      "Ġawareness": 7265,
      "Ġbio": 7266,
      "estre": 7267,
      "Ġanimal": 7268,
      "back": 7269,
      "Ġfell": 7270,
      "Ġintegrated": 7271,
      "XX": 7272,
      "del": 7273,
      "ugal": 7274,
      "Ġlien": 7275,
      "ardi": 7276,
      "Ġbag": 7277,
      "Ġreflect": 7278,
      "Ġconflit": 7279,
      "Ġinvent": 7280,
      "Ġreb": 7281,
      "Ind": 7282,
      "Ġexprim": 7283,
      "Ġretard": 7284,
      "61": 7285,
      "Ġfol": 7286,
      "icate": 7287,
      "Ġcomprom": 7288,
      "Ġprec": 7289,
      "Ġfavour": 7290,
      "Ġpartnership": 7291,
      "Ġachieved": 7292,
      "Mal": 7293,
      "Ġtab": 7294,
      "Ġdehors": 7295,
      "ĠÃ©tro": 7296,
      "ĠOp": 7297,
      "FR": 7298,
      "ĠOper": 7299,
      "Ġautour": 7300,
      "Enfin": 7301,
      "html": 7302,
      "Ġcircon": 7303,
      "ĠComment": 7304,
      "Ġdecre": 7305,
      "ĠidÃ©e": 7306,
      "ĠFranc": 7307,
      "Ġexercise": 7308,
      "aliment": 7309,
      "Ġ39": 7310,
      "Ġagree": 7311,
      "Ġendroit": 7312,
      "Ġpayer": 7313,
      "ĠfÃ©dÃ©rale": 7314,
      "Ġquot": 7315,
      "Ġgre": 7316,
      "eting": 7317,
      "cession": 7318,
      "Ġinterested": 7319,
      "Ġmaintain": 7320,
      "ounced": 7321,
      "uan": 7322,
      "till": 7323,
      "ÃĪ": 7324,
      "Ġsales": 7325,
      "Ġvoix": 7326,
      "ĠLord": 7327,
      "Ġagent": 7328,
      "Ġ]": 7329,
      "ĠRed": 7330,
      "ĠEducation": 7331,
      "Ġparticipate": 7332,
      "Ġleading": 7333,
      "Ġjuridiques": 7334,
      "rits": 7335,
      "ĠDirection": 7336,
      "Ġlegisl": 7337,
      "Ġeyes": 7338,
      "ĠCity": 7339,
      "ĠeuropÃ©ennes": 7340,
      "ĠÃ©tablir": 7341,
      "Ġcampagne": 7342,
      "oples": 7343,
      "clam": 7344,
      "Ġbrother": 7345,
      "Ġsoutenir": 7346,
      "tact": 7347,
      "gramme": 7348,
      "ANS": 7349,
      "Ġindustries": 7350,
      "ĠconsÃ©quences": 7351,
      "ĠprÃªts": 7352,
      "comm": 7353,
      "ds": 7354,
      "ĠIS": 7355,
      "Ġhaven": 7356,
      "Ġpouvait": 7357,
      "Sal": 7358,
      "Ġling": 7359,
      "taine": 7360,
      "Ġrisks": 7361,
      "Ġcad": 7362,
      "ĠGood": 7363,
      "ariff": 7364,
      "Ġapplicant": 7365,
      "Lorsque": 7366,
      "informations": 7367,
      "ĠProject": 7368,
      "Ġvictims": 7369,
      "Cet": 7370,
      "ĠAud": 7371,
      "Ġpartner": 7372,
      "Ġconflits": 7373,
      "pd": 7374,
      "ĠvidÃ©": 7375,
      "ĠTotal": 7376,
      "Ġstations": 7377,
      "Ġmentioned": 7378,
      "Ġalternative": 7379,
      "Votre": 7380,
      "Ġrue": 7381,
      "emment": 7382,
      "jection": 7383,
      "Ġspecified": 7384,
      "ĠdÃ©pos": 7385,
      "Ġderniers": 7386,
      "Ġsimpl": 7387,
      "related": 7388,
      "Ġprincipalement": 7389,
      "absence": 7390,
      "Ġprohib": 7391,
      "ĠSen": 7392,
      "Ġterritory": 7393,
      "Ġanimaux": 7394,
      "ĠSecrÃ©tariat": 7395,
      "Ġbroadcast": 7396,
      "lar": 7397,
      "rible": 7398,
      "ously": 7399,
      "ĠInf": 7400,
      "ĠintÃ©rieur": 7401,
      "DÃ©": 7402,
      "Ġintervention": 7403,
      "Ġsigned": 7404,
      "Ġphoto": 7405,
      "MA": 7406,
      "room": 7407,
      "Ġrare": 7408,
      "Ġreconna": 7409,
      "Ġrid": 7410,
      "ommod": 7411,
      "ĠprioritÃ©": 7412,
      "Ġcauses": 7413,
      "Ġmessages": 7414,
      "Su": 7415,
      "tiennent": 7416,
      "Ġattem": 7417,
      "Ġinformed": 7418,
      "Ġgradu": 7419,
      "Ġassociation": 7420,
      "ĠpiÃ¨ces": 7421,
      "ĠRiver": 7422,
      "ĠManitoba": 7423,
      "Ġadvant": 7424,
      "Ġregulatory": 7425,
      "Ġseems": 7426,
      "62": 7427,
      "FC": 7428,
      "chewan": 7429,
      "oudre": 7430,
      "Ġinvestissements": 7431,
      "52": 7432,
      "Ah": 7433,
      "ĠBur": 7434,
      "plois": 7435,
      "Ġprincipales": 7436,
      "Ġfulf": 7437,
      "ĠColumbia": 7438,
      "Ġrang": 7439,
      "Ġassociations": 7440,
      "yst": 7441,
      "ĠrÃ©per": 7442,
      "centage": 7443,
      "ĠcaractÃ©ristiques": 7444,
      "tian": 7445,
      "Ġlearning": 7446,
      "Ġalloc": 7447,
      "Ġelectronic": 7448,
      "Ġlongue": 7449,
      "Ġrespecter": 7450,
      "arc": 7451,
      "ola": 7452,
      "ĠChris": 7453,
      "Ã©volution": 7454,
      "Uh": 7455,
      "Ġmerc": 7456,
      "rois": 7457,
      "ĠtraitÃ©s": 7458,
      "ĠclÃ©s": 7459,
      "Ġlimite": 7460,
      "ĠrÃ©seaux": 7461,
      "wide": 7462,
      "ĠReview": 7463,
      "umÃ©": 7464,
      "ovo": 7465,
      "ĠÃ©chÃ©": 7466,
      "Ġtorture": 7467,
      "Ġtribunal": 7468,
      "Ġfucking": 7469,
      "obtenir": 7470,
      "Ġviolation": 7471,
      "ĠsÃ»re": 7472,
      "Ġrom": 7473,
      "bli": 7474,
      "Ġcritical": 7475,
      "Ġraisonn": 7476,
      "espace": 7477,
      "ĠÌĪ": 7478,
      "Ġconsistent": 7479,
      "78": 7480,
      "Ġtele": 7481,
      "Ġpublications": 7482,
      "igneur": 7483,
      "ĠappelÃ©": 7484,
      "Ġgranted": 7485,
      "TE": 7486,
      "ticip": 7487,
      "Ġfuck": 7488,
      "Ġband": 7489,
      "Ġrelease": 7490,
      "Ġgoes": 7491,
      "Ġpermettra": 7492,
      "Ġnegotiations": 7493,
      "Gu": 7494,
      "levision": 7495,
      "Ġrecevoir": 7496,
      "Ġimplementing": 7497,
      "Ġfichier": 7498,
      "askatchewan": 7499,
      "wick": 7500,
      "ald": 7501,
      "ello": 7502,
      "Ġtransactions": 7503,
      "Ġhimself": 7504,
      "Ġmodifier": 7505,
      "ĠconformitÃ©": 7506,
      "timent": 7507,
      "Ġforte": 7508,
      "agner": 7509,
      "Ġpron": 7510,
      "Ġactes": 7511,
      "importe": 7512,
      "Ġregistered": 7513,
      "Ġscientifique": 7514,
      "51": 7515,
      "Ainsi": 7516,
      "irs": 7517,
      "ĠMes": 7518,
      "ĠMart": 7519,
      "Parce": 7520,
      "DA": 7521,
      "ĠCC": 7522,
      "ĠExecutive": 7523,
      "Ġlogici": 7524,
      "ĠprÃ©paration": 7525,
      "ĠRussian": 7526,
      "Ġfacile": 7527,
      "Ġdated": 7528,
      "Ġparfois": 7529,
      "ĠrÃ©cemment": 7530,
      "Ġcomputer": 7531,
      "Ġoffices": 7532,
      "Ġsciences": 7533,
      "Ġapplicables": 7534,
      "Monsieur": 7535,
      "Ġdefinition": 7536,
      "Ġlanguages": 7537,
      "Ġtonnes": 7538,
      "oly": 7539,
      "Ġfaite": 7540,
      "Ġnumbers": 7541,
      "iodiff": 7542,
      "Ġproceedings": 7543,
      "pite": 7544,
      "Ġdeep": 7545,
      "Ġafric": 7546,
      "rimer": 7547,
      "Ġrecords": 7548,
      "Ġtemper": 7549,
      "iling": 7550,
      "Ġdiscipl": 7551,
      "Ġaccoun": 7552,
      "Ġgrat": 7553,
      "Ġprofessionnels": 7554,
      "ĠArch": 7555,
      "Peut": 7556,
      "Ġcourant": 7557,
      "Ġgotta": 7558,
      "Ġreti": 7559,
      "Ġgiving": 7560,
      "Ġrecently": 7561,
      "oqu": 7562,
      "Ġreduced": 7563,
      "ĠGlobal": 7564,
      "ĠrÃ©serv": 7565,
      "Ġcalls": 7566,
      "Ġradiodiff": 7567,
      "Ġbate": 7568,
      "Ġround": 7569,
      "igure": 7570,
      "Ġregulation": 7571,
      "iterran": 7572,
      "Ġ1989": 7573,
      "indi": 7574,
      "aily": 7575,
      "Ġcolle": 7576,
      "Ġpermettent": 7577,
      "Ġdestruction": 7578,
      "Ġbeyond": 7579,
      "Ġexternal": 7580,
      "Ġappreci": 7581,
      "ĠprÃ©vue": 7582,
      "ĠForces": 7583,
      "Ġconference": 7584,
      "alinÃ©a": 7585,
      "Ġpression": 7586,
      "criptions": 7587,
      "erland": 7588,
      "Ġmises": 7589,
      "Ġconnex": 7590,
      "Ġcontient": 7591,
      "ĠJack": 7592,
      "Ġsubsequent": 7593,
      "othing": 7594,
      "oxy": 7595,
      "Ġadvice": 7596,
      "ĠmÃ©t": 7597,
      "vey": 7598,
      "Ġseraient": 7599,
      "Ġblack": 7600,
      "Reg": 7601,
      "Ġrendu": 7602,
      "Ġsexual": 7603,
      "ĠdÃ©chets": 7604,
      "itness": 7605,
      "ĠMs": 7606,
      "Ġappr": 7607,
      "ĠÃ©nonc": 7608,
      "doc": 7609,
      "Ġpassage": 7610,
      "ĠÃ©tudiants": 7611,
      "ered": 7612,
      "ĠmÃ©r": 7613,
      "Ġgain": 7614,
      "Ġcroire": 7615,
      "Ġfini": 7616,
      "ĠKos": 7617,
      "Ġensuring": 7618,
      "ĠResources": 7619,
      "ĠPers": 7620,
      "Ġdetails": 7621,
      "arrÃª": 7622,
      "Ġtiss": 7623,
      "ĠFish": 7624,
      "applique": 7625,
      "Ġcompagnie": 7626,
      "Ġduty": 7627,
      "erce": 7628,
      "Ġemploi": 7629,
      "Ġknows": 7630,
      "Ġexplo": 7631,
      "Ġlisten": 7632,
      "Ġfabric": 7633,
      "Ġitems": 7634,
      "Maintenant": 7635,
      "PI": 7636,
      "audi": 7637,
      "Ġfinancing": 7638,
      "ĠCRTC": 7639,
      "Ġcompensation": 7640,
      "Ġsignifie": 7641,
      "Sta": 7642,
      "Ġswe": 7643,
      "Ġaband": 7644,
      "ĠrÃ¨gle": 7645,
      "ĠAlberta": 7646,
      "Ġtomorrow": 7647,
      "Ġalimentaire": 7648,
      "roup": 7649,
      "Ġconstituent": 7650,
      "Ġarriver": 7651,
      "Ġbox": 7652,
      "ĠcomplÃ©ment": 7653,
      "Ġcounter": 7654,
      "ographique": 7655,
      "Ġutile": 7656,
      "Ġsubsection": 7657,
      "quences": 7658,
      "ĠrÃ©uss": 7659,
      "Ġselection": 7660,
      "ĠVol": 7661,
      "ĠtuÃ©": 7662,
      "Ġassets": 7663,
      "Ġpouvoirs": 7664,
      "Ġresponsibilities": 7665,
      "Ġchercheurs": 7666,
      "irme": 7667,
      "ĠGra": 7668,
      "ĠdÃ©velopper": 7669,
      "Ġintroduced": 7670,
      "Ġhandicap": 7671,
      "Ġdest": 7672,
      "Ġlimites": 7673,
      "Ġagricoles": 7674,
      "ĠEnvironmental": 7675,
      "GR": 7676,
      "edule": 7677,
      "iger": 7678,
      "Ġfundamental": 7679,
      "Ġpartenariat": 7680,
      "Ġsauf": 7681,
      "Ġaqu": 7682,
      "Ġlivre": 7683,
      "Ġcult": 7684,
      "agriculture": 7685,
      "ĠOu": 7686,
      "Ġprestation": 7687,
      "53": 7688,
      "ging": 7689,
      "haps": 7690,
      "Ġmm": 7691,
      "Ġresource": 7692,
      "Ġinstance": 7693,
      "ĠTerrit": 7694,
      "Ã£": 7695,
      "Ġthous": 7696,
      "Ġdifficul": 7697,
      "94": 7698,
      "entle": 7699,
      "iquent": 7700,
      "atÃ©r": 7701,
      "ĠTO": 7702,
      "atively": 7703,
      "ĠAfrique": 7704,
      "Ġschools": 7705,
      "ĠdifficultÃ©s": 7706,
      "68": 7707,
      "house": 7708,
      "pon": 7709,
      "Ġimporte": 7710,
      "Ã§ant": 7711,
      "ĠfrÃ¨re": 7712,
      "Ġmeaning": 7713,
      "ker": 7714,
      "ĠexpÃ©ri": 7715,
      "Ġstra": 7716,
      "Ġconnu": 7717,
      "Ġeat": 7718,
      "Ġrub": 7719,
      "ĠMil": 7720,
      "Ġisol": 7721,
      "ĠLuxembourg": 7722,
      "Ġemployee": 7723,
      "Ġprofessionnelle": 7724,
      "Ġdiscussed": 7725,
      "Ġimmediately": 7726,
      "Ġtoxic": 7727,
      "Ġorganes": 7728,
      "riez": 7729,
      "Ġscope": 7730,
      "fully": 7731,
      "Ġperfect": 7732,
      "Ġhit": 7733,
      "Ġneigh": 7734,
      "cture": 7735,
      "ĠcollÃ¨g": 7736,
      "vres": 7737,
      "prÃ©": 7738,
      "entiss": 7739,
      "Ġexpos": 7740,
      "III": 7741,
      "Ġtonight": 7742,
      "Ġcampaign": 7743,
      "Ġdiffusion": 7744,
      "Ġfranc": 7745,
      "lantic": 7746,
      "Ġconclu": 7747,
      "ĠColombie": 7748,
      "cel": 7749,
      "Ġcau": 7750,
      "Ġsatell": 7751,
      "oblig": 7752,
      "Ġonline": 7753,
      "ĠIm": 7754,
      "ĠÃ©vid": 7755,
      "Ġpoursuivre": 7756,
      "Ġgross": 7757,
      "Ġrapporteur": 7758,
      "ĠContract": 7759,
      "pens": 7760,
      "Ġshit": 7761,
      "ĠarrivÃ©": 7762,
      "Ġscientifiques": 7763,
      "ĠRapport": 7764,
      "Ġunits": 7765,
      "adresse": 7766,
      "ĠÃ©lections": 7767,
      "ĠOther": 7768,
      "exportation": 7769,
      "ĠportÃ©e": 7770,
      "ined": 7771,
      "ĠrÃ©ponses": 7772,
      "Ġaward": 7773,
      "Ġscientific": 7774,
      "Ġyeah": 7775,
      "ĠDef": 7776,
      "],": 7777,
      "Ġrepe": 7778,
      "Ġinsurance": 7779,
      "eneur": 7780,
      "Ġconstitution": 7781,
      "Ġdirectrices": 7782,
      "Ġdevoir": 7783,
      "ĠspÃ©ciale": 7784,
      "mark": 7785,
      "Ġmechanisms": 7786,
      "Ġstakeholders": 7787,
      "set": 7788,
      "Ġwide": 7789,
      "endent": 7790,
      "Her": 7791,
      "Ã¨vement": 7792,
      "ĠDel": 7793,
      "Ã©rÃ©s": 7794,
      "Ġdelegation": 7795,
      "ĠFra": 7796,
      "Ġintellig": 7797,
      "Ġhumaine": 7798,
      "autoritÃ©": 7799,
      "uves": 7800,
      "Ġpick": 7801,
      "Ġmains": 7802,
      "Ġfunctions": 7803,
      "Ġestimated": 7804,
      "Ġobstacles": 7805,
      "accep": 7806,
      "ĠFore": 7807,
      "Ġcompati": 7808,
      "ĠJournal": 7809,
      "Dr": 7810,
      "ĠCAN": 7811,
      "Ġtraiter": 7812,
      "akistan": 7813,
      "Note": 7814,
      "Ġmilitaires": 7815,
      "ĠEst": 7816,
      "Ġtruth": 7817,
      "ĠÃ©quipe": 7818,
      "73": 7819,
      "DU": 7820,
      "alie": 7821,
      "Ġvess": 7822,
      "ĠCan": 7823,
      "tability": 7824,
      "ĠHead": 7825,
      "ĠMontrÃ©al": 7826,
      "Co": 7827,
      "ĠpÃ©t": 7828,
      "ĠTre": 7829,
      "appelle": 7830,
      "ouveau": 7831,
      "Ġprobablement": 7832,
      "93": 7833,
      "Em": 7834,
      "dite": 7835,
      "ĠrÃª": 7836,
      "techn": 7837,
      "ĠÃ©lÃ©ment": 7838,
      "endment": 7839,
      "Ġobtained": 7840,
      "Ġpremiers": 7841,
      "ĠItaly": 7842,
      "Ġprovisoire": 7843,
      "enty": 7844,
      "Ġbureaux": 7845,
      "esus": 7846,
      "Ġsept": 7847,
      "ĠquantitÃ©": 7848,
      "Ġtandis": 7849,
      "ĠSan": 7850,
      "onnÃ©": 7851,
      "ĠeuropÃ©ens": 7852,
      "2012": 7853,
      "ĠdÃ©liv": 7854,
      "Ġfavoriser": 7855,
      "esprit": 7856,
      "ĠbÃ©b": 7857,
      "Ġsections": 7858,
      "ĠRegional": 7859,
      "Ġoffered": 7860,
      "Ġdestination": 7861,
      "91": 7862,
      "Ouest": 7863,
      "ĠrÃ©fugiÃ©s": 7864,
      "rÃ©es": 7865,
      "Ġcontains": 7866,
      "Ġunless": 7867,
      "ĠGen": 7868,
      "ĠmodÃ¨les": 7869,
      "Ġintegration": 7870,
      "Ġacts": 7871,
      "utiliser": 7872,
      "ĠrÃ©gionales": 7873,
      "dessous": 7874,
      "Mes": 7875,
      "oo": 7876,
      "ĠSus": 7877,
      "ĠDU": 7878,
      "Ġdiagn": 7879,
      "Ġpartout": 7880,
      "Ġrequirement": 7881,
      "Ġstuff": 7882,
      "Ġofficials": 7883,
      "Ġfabrication": 7884,
      "ĠÃ©trangÃ¨res": 7885,
      "Ġmarketing": 7886,
      "Ġsale": 7887,
      "quie": 7888,
      "ĠSa": 7889,
      "ĠStat": 7890,
      "ĠLat": 7891,
      "ĠtempÃ©r": 7892,
      "Ġfif": 7893,
      "izes": 7894,
      "Ġindique": 7895,
      "ĠrÃ©gionaux": 7896,
      "impÃ´t": 7897,
      "Ġchanger": 7898,
      "crire": 7899,
      "Ġlisted": 7900,
      "Es": 7901,
      "Like": 7902,
      "ederation": 7903,
      "sig": 7904,
      "ida": 7905,
      "ĠBas": 7906,
      "ĠGaz": 7907,
      "Ġproducteurs": 7908,
      "ĠconsidÃ©rable": 7909,
      "Ġfacilitate": 7910,
      "redi": 7911,
      "Ġlaid": 7912,
      "Ã¨ves": 7913,
      "Ġmarche": 7914,
      "ĠrÃ¨glements": 7915,
      "Ġcalend": 7916,
      "Ġtaxes": 7917,
      "ridge": 7918,
      "Ġprestations": 7919,
      "ĠLtd": 7920,
      "Ġmusique": 7921,
      "Ġintention": 7922,
      "ĠmoitiÃ©": 7923,
      "ĠWar": 7924,
      "engagement": 7925,
      "Ġgouvernementales": 7926,
      "Ġgrowing": 7927,
      "Ġmurder": 7928,
      "Ġsoftware": 7929,
      "Ġcolon": 7930,
      "akes": 7931,
      "ĠvolontÃ©": 7932,
      "Ġemergency": 7933,
      "Ġreten": 7934,
      "Ġconsiste": 7935,
      "lled": 7936,
      "rastructures": 7937,
      "Ġcard": 7938,
      "Ġinclus": 7939,
      "Thank": 7940,
      "Ġinstructions": 7941,
      "Ġemissions": 7942,
      "tist": 7943,
      "Ġvendre": 7944,
      "Ġpeuples": 7945,
      "Ã©tablir": 7946,
      "Mem": 7947,
      "Ġrecons": 7948,
      "Ġsessions": 7949,
      "Ġchanged": 7950,
      "Ġcontinues": 7951,
      "Ġcouldn": 7952,
      "Ġ1988": 7953,
      "Ġexpertise": 7954,
      "Ġreached": 7955,
      "ĠcatÃ©gories": 7956,
      "Ġengagements": 7957,
      "Ġble": 7958,
      "Ġrecognized": 7959,
      "mont": 7960,
      "with": 7961,
      "zed": 7962,
      "estiv": 7963,
      "Ġpi": 7964,
      "Ġuns": 7965,
      "UniversitÃ©": 7966,
      "intervention": 7967,
      "Ġworry": 7968,
      "gen": 7969,
      "ĠenquÃªte": 7970,
      "arlier": 7971,
      "enous": 7972,
      "rimoine": 7973,
      "entissage": 7974,
      "First": 7975,
      "Pers": 7976,
      "Ġsimply": 7977,
      "Ġdog": 7978,
      "Ġclub": 7979,
      "Ġtient": 7980,
      "atte": 7981,
      "attention": 7982,
      "utÃ©s": 7983,
      "resh": 7984,
      "Ġwelcome": 7985,
      "Ġexactly": 7986,
      "uts": 7987,
      "Ġexcept": 7988,
      "Ġmedic": 7989,
      "Ġviews": 7990,
      "undi": 7991,
      "Ġrej": 7992,
      "Ã©sor": 7993,
      "ĠrÃ©mun": 7994,
      "2014": 7995,
      "Ġcommencer": 7996,
      "Per": 7997,
      "osl": 7998,
      "Under": 7999,
      "ĠintÃ©rÃªt": 8000,
      "Ġrestrictions": 8001,
      "Ġclassification": 8002,
      "initiative": 8003,
      "itec": 8004,
      "etary": 8005,
      "Ġkids": 8006,
      "Ġdevrais": 8007,
      "Ġcorruption": 8008,
      "espÃ¨re": 8009,
      "ĠcompÃ©tence": 8010,
      "Ġdatab": 8011,
      "Ġweapons": 8012,
      "pol": 8013,
      "pret": 8014,
      "xy": 8015,
      "istics": 8016,
      "Ġexac": 8017,
      "Ġaliments": 8018,
      "jected": 8019,
      "Ġveiller": 8020,
      "Ġhighly": 8021,
      "Ġhumanitarian": 8022,
      "ĠMembres": 8023,
      "Ġcinqu": 8024,
      "ĠdÃ©mocratique": 8025,
      "Ġ85": 8026,
      "92": 8027,
      "ĠTR": 8028,
      "ĠBell": 8029,
      "ĠGree": 8030,
      "Ġvariety": 8031,
      "Ġcoin": 8032,
      "ĠVic": 8033,
      "Ġcommerciales": 8034,
      "Ġsanctions": 8035,
      "Ġwhom": 8036,
      "Ġ56": 8037,
      "Ġworksh": 8038,
      "ĠProduc": 8039,
      "Ġbases": 8040,
      "ĠÃ©viter": 8041,
      "ĠconsÃ©quence": 8042,
      "auff": 8043,
      "Ġ47": 8044,
      "Ġproduire": 8045,
      "Ġsetting": 8046,
      "Ġutilisateurs": 8047,
      "Ġcirconstances": 8048,
      "TO": 8049,
      "bation": 8050,
      "Ġdad": 8051,
      "Ġ41": 8052,
      "Ġaccepted": 8053,
      "Ġconcep": 8054,
      "Ã¨tement": 8055,
      "Ġexamine": 8056,
      "Du": 8057,
      "GO": 8058,
      "TV": 8059,
      "mise": 8060,
      "sons": 8061,
      "Ġcomposition": 8062,
      "Ġship": 8063,
      "Ġuseful": 8064,
      "Ġraised": 8065,
      "Ġdifference": 8066,
      "Ġdivision": 8067,
      "Att": 8068,
      "Ġforest": 8069,
      "Ġattra": 8070,
      "prÃ©tation": 8071,
      "Ġdied": 8072,
      "Ġgoals": 8073,
      "Ġpersonnels": 8074,
      "Ġdossiers": 8075,
      "Ġconsultatif": 8076,
      "no": 8077,
      "Ġpartage": 8078,
      "Ġwhite": 8079,
      "ancouver": 8080,
      "ĠgÃ©nÃ©rales": 8081,
      "ĠSafety": 8082,
      "enregistrement": 8083,
      "ĠdÃ©ten": 8084,
      "Ġconsensus": 8085,
      "ĠprivÃ©e": 8086,
      "ĠAfghanistan": 8087,
      "Ã©change": 8088,
      "Ġabsence": 8089,
      "ĠimmÃ©diatement": 8090,
      "ĠNetwork": 8091,
      "kraine": 8092,
      "Ġplate": 8093,
      "ĠBusiness": 8094,
      "Ġperte": 8095,
      "ukon": 8096,
      "Br": 8097,
      "tect": 8098,
      "Ġinterventions": 8099,
      "ext": 8100,
      "ĠPortugal": 8101,
      "Ġtotale": 8102,
      "Eh": 8103,
      "Ġongoing": 8104,
      "Ġatmosph": 8105,
      "Ġaffaire": 8106,
      "ĠIls": 8107,
      "ĠFinancial": 8108,
      "Ġatteint": 8109,
      "Ġessentiel": 8110,
      "essai": 8111,
      "Ġexpert": 8112,
      "JO": 8113,
      "iendra": 8114,
      "zz": 8115,
      "tidi": 8116,
      "ĠadÃ©qu": 8117,
      "spagne": 8118,
      "Ġincorpor": 8119,
      "Ġintervenants": 8120,
      "my": 8121,
      "Ġfera": 8122,
      "ĠBi": 8123,
      "Ġhistoire": 8124,
      "Have": 8125,
      "moins": 8126,
      "Ġselected": 8127,
      "ocracy": 8128,
      "ĠChief": 8129,
      "Ġannivers": 8130,
      "Ġexcellent": 8131,
      "Ġdream": 8132,
      "emb": 8133,
      "Ġstable": 8134,
      "Ġmaintenir": 8135,
      "Ġstruct": 8136,
      "experts": 8137,
      "chant": 8138,
      "ĠLis": 8139,
      "ĠOffic": 8140,
      "affaire": 8141,
      "ĠPremiÃ¨res": 8142,
      "col": 8143,
      "arity": 8144,
      "iquement": 8145,
      "ĠÃ©trangers": 8146,
      "iable": 8147,
      "environ": 8148,
      "ĠPubl": 8149,
      "Ġstyle": 8150,
      "avy": 8151,
      "Ġ58": 8152,
      "Ġexaminer": 8153,
      "Commun": 8154,
      "urÃ©e": 8155,
      "ishing": 8156,
      "Ġ65": 8157,
      "Ġterritoires": 8158,
      "Ġstatements": 8159,
      "ĠAuthority": 8160,
      "Ġriv": 8161,
      "esses": 8162,
      "prÃ©sent": 8163,
      "asses": 8164,
      "Ġimages": 8165,
      "uba": 8166,
      "ĠRepresent": 8167,
      "atrice": 8168,
      "cks": 8169,
      "ĠÎ": 8170,
      "Ġelection": 8171,
      "iring": 8172,
      "ĠLim": 8173,
      "Ġ57": 8174,
      "Ġtransformation": 8175,
      "Ġprocessing": 8176,
      "Ġministres": 8177,
      "aritÃ©": 8178,
      "Ġfinance": 8179,
      "Ġjobs": 8180,
      "Ġpromoting": 8181,
      "Ĥ¬": 8182,
      "Ġvieux": 8183,
      "Ġaware": 8184,
      "ĠsiÃ¨cle": 8185,
      "Ġcouv": 8186,
      "istic": 8187,
      "ĠMaj": 8188,
      "Ġbegan": 8189,
      "ĠRad": 8190,
      "Ġconserv": 8191,
      "2015": 8192,
      "Ġexige": 8193,
      "ĠÃ©vÃ©nements": 8194,
      "Ġdin": 8195,
      "Ġwalk": 8196,
      "ĠPN": 8197,
      "ĠWhere": 8198,
      "Ġactual": 8199,
      "Ġ1987": 8200,
      "Ġtried": 8201,
      "Ġaimed": 8202,
      "Ġoutils": 8203,
      "Ġchemical": 8204,
      "Ġworth": 8205,
      "Ġretourn": 8206,
      "ĠsecrÃ©tariat": 8207,
      "ration": 8208,
      "irms": 8209,
      "Ġestablishing": 8210,
      "ĠCharter": 8211,
      "ĠvÃ©ritÃ©": 8212,
      "Ġtellement": 8213,
      "union": 8214,
      "Ġvar": 8215,
      "uls": 8216,
      "ĠAustral": 8217,
      "ĠrÃ©alitÃ©": 8218,
      "Ġaccus": 8219,
      "ĠMinistre": 8220,
      "Ġnaturel": 8221,
      "Ġgives": 8222,
      "Ġcaused": 8223,
      "icts": 8224,
      "Ġhus": 8225,
      "Ġgoal": 8226,
      "Ġusually": 8227,
      "Ġferme": 8228,
      "cs": 8229,
      "innovation": 8230,
      "Ġmots": 8231,
      "ĠLou": 8232,
      "standing": 8233,
      "Ġ43": 8234,
      "ĠparticuliÃ¨re": 8235,
      "atriÃ¨me": 8236,
      "%.": 8237,
      "gov": 8238,
      "Ġdeleg": 8239,
      "ĠSaskatchewan": 8240,
      "Ġduties": 8241,
      "oper": 8242,
      "Ġseven": 8243,
      "ĠprÃ©al": 8244,
      "Ġesc": 8245,
      "Chaque": 8246,
      "Ġbuy": 8247,
      "Ġlooks": 8248,
      "Ġobtenu": 8249,
      "Ġreligion": 8250,
      "ĠSci": 8251,
      "ĠIT": 8252,
      "itesse": 8253,
      "Ġmachines": 8254,
      "Ġmarine": 8255,
      "Ġroy": 8256,
      "ĠdÃ©fis": 8257,
      "Ġvehicles": 8258,
      "roits": 8259,
      "ĠCy": 8260,
      "Ġdiscl": 8261,
      "Ġallons": 8262,
      "Ġpayments": 8263,
      "unswick": 8264,
      "Ġtransit": 8265,
      "Ġeffectiveness": 8266,
      "Ġutilisation": 8267,
      "Ġtitulaire": 8268,
      "Ġimproving": 8269,
      "Ġouvert": 8270,
      "Ġmariage": 8271,
      "ĠvÃ©ritable": 8272,
      "Ġow": 8273,
      "Ġchron": 8274,
      "Ġfigurant": 8275,
      "ĠmÃ©canisme": 8276,
      "laration": 8277,
      "ype": 8278,
      "orable": 8279,
      "Ġbelle": 8280,
      "Ġtrib": 8281,
      "road": 8282,
      "Ġnaturelles": 8283,
      "Ġofficielles": 8284,
      "Ġchallenge": 8285,
      "rary": 8286,
      "roph": 8287,
      "unitÃ©": 8288,
      "Ġtraite": 8289,
      "Ġ42": 8290,
      "Ġamounts": 8291,
      "Ã©dÃ©ration": 8292,
      "entis": 8293,
      "Ġsometimes": 8294,
      "Ġattack": 8295,
      "vÃ©s": 8296,
      "otte": 8297,
      "Ġregistration": 8298,
      "Ġbelong": 8299,
      "vo": 8300,
      "Ġmens": 8301,
      "TH": 8302,
      "position": 8303,
      "ĠexpÃ©rience": 8304,
      "Ġefficaces": 8305,
      "ographie": 8306,
      "Institut": 8307,
      "Bas": 8308,
      "Ġlie": 8309,
      "Ġtool": 8310,
      "ulf": 8311,
      "ĠdÃ©crit": 8312,
      "ĠexaminÃ©": 8313,
      "Ġconcentrations": 8314,
      "Ġsubsidi": 8315,
      "Ġdress": 8316,
      "ĠCD": 8317,
      "Ġproven": 8318,
      "ĠmÃ©m": 8319,
      "unk": 8320,
      "Ġentend": 8321,
      "affirm": 8322,
      "Ġagricole": 8323,
      "ĠPremier": 8324,
      "bi": 8325,
      "estation": 8326,
      "ĠÃ©cl": 8327,
      "Ġlinguis": 8328,
      "Ġenforcement": 8329,
      "Ġproduce": 8330,
      "Ġenhance": 8331,
      "Ġretraite": 8332,
      "existence": 8333,
      "ander": 8334,
      "Ġtirer": 8335,
      "OJ": 8336,
      "Ġpou": 8337,
      "ĠforÃª": 8338,
      "ĠTim": 8339,
      "Ġload": 8340,
      "ĠcomplÃ¨te": 8341,
      "umul": 8342,
      "assin": 8343,
      "Ã©tiques": 8344,
      "seau": 8345,
      "ĠRoman": 8346,
      "Ġdebt": 8347,
      "Puis": 8348,
      "ĠcÅĵur": 8349,
      "Ġpourcentage": 8350,
      "Ġofficers": 8351,
      "Ġsqu": 8352,
      "ĠIR": 8353,
      "Ġ95": 8354,
      "Ġradiodiffusion": 8355,
      "CA": 8356,
      "Over": 8357,
      "Ġearlier": 8358,
      "ĠministÃ©": 8359,
      "Ã¢te": 8360,
      "ĠJapon": 8361,
      "Sa": 8362,
      "Ġdomm": 8363,
      "idÃ©e": 8364,
      "Ġplaced": 8365,
      "Ġsupposed": 8366,
      "Ġindire": 8367,
      "Ġ1985": 8368,
      "Ġpossibility": 8369,
      "Ã©tranger": 8370,
      "Dem": 8371,
      "Ġara": 8372,
      "Ġcouver": 8373,
      "ĠBon": 8374,
      "onnÃ©es": 8375,
      "aimerais": 8376,
      "Ottawa": 8377,
      "ano": 8378,
      "aters": 8379,
      "eline": 8380,
      "ĠStre": 8381,
      "Ġarbit": 8382,
      "ĠpremiÃ¨res": 8383,
      "Ġinnovation": 8384,
      "Ġbrief": 8385,
      "Ġregret": 8386,
      "Ġimproved": 8387,
      "Imp": 8388,
      "nance": 8389,
      "ansion": 8390,
      "Ġwid": 8391,
      "ĠdÃ©tr": 8392,
      "essment": 8393,
      "Ġweak": 8394,
      "Ġprefer": 8395,
      "Ġprincipale": 8396,
      "Ġaccessible": 8397,
      "ointed": 8398,
      "Ġindicate": 8399,
      "Ġpleinement": 8400,
      "pection": 8401,
      "Ġ46": 8402,
      "ĠrÃ©cup": 8403,
      "Ġcess": 8404,
      "Ġfast": 8405,
      "Ġearth": 8406,
      "Ġmotiv": 8407,
      "Ġimmigr": 8408,
      "Ġfiles": 8409,
      "Ġundertaken": 8410,
      "Ġsympt": 8411,
      "Ġdegree": 8412,
      "Ass": 8413,
      "riques": 8414,
      "ĠRome": 8415,
      "ĠBay": 8416,
      "impact": 8417,
      "Ġclair": 8418,
      "Ġsupporting": 8419,
      "Ġ1986": 8420,
      "COM": 8421,
      "aves": 8422,
      "ĠFood": 8423,
      "Ġblanc": 8424,
      "Ġrecommandation": 8425,
      "Ġcompetent": 8426,
      "Ġmouvement": 8427,
      "Ġhost": 8428,
      "amour": 8429,
      "Ġfourni": 8430,
      "Ġanimals": 8431,
      "Ġofficer": 8432,
      "Ġconjoin": 8433,
      "abinet": 8434,
      "Ġ44": 8435,
      "Ġindis": 8436,
      "Ġeligible": 8437,
      "Min": 8438,
      "OUR": 8439,
      "water": 8440,
      "Ġbour": 8441,
      "Ġhour": 8442,
      "Ġfixed": 8443,
      "tirer": 8444,
      "Ġwonder": 8445,
      "Ġquotidi": 8446,
      "Ġsauv": 8447,
      "Ġquit": 8448,
      "Ġparole": 8449,
      "Ġseconde": 8450,
      "ĠVo": 8451,
      "ĠutilisÃ©es": 8452,
      "effet": 8453,
      "Ġtrouble": 8454,
      "Ġseparate": 8455,
      "Ãĳ": 8456,
      "este": 8457,
      "Ġlieux": 8458,
      "Ġing": 8459,
      "imb": 8460,
      "ĠMat": 8461,
      "ĠJer": 8462,
      "Ġefficiency": 8463,
      "Ġcaf": 8464,
      "Ġpensais": 8465,
      "Even": 8466,
      "nam": 8467,
      "asp": 8468,
      "Ġpourrais": 8469,
      "ĠDÃ©claration": 8470,
      "Pri": 8471,
      "upe": 8472,
      "vail": 8473,
      "Ġgauche": 8474,
      "Ġformal": 8475,
      "Ġjudiciaire": 8476,
      "Ġadequate": 8477,
      "igenous": 8478,
      "Ġvenu": 8479,
      "Ġenvironnementale": 8480,
      "Ġdimension": 8481,
      "Ġcach": 8482,
      "ura": 8483,
      "Ġrace": 8484,
      "QU": 8485,
      "Ġsin": 8486,
      "Ġconcluded": 8487,
      "Pol": 8488,
      "fri": 8489,
      "Ġgentle": 8490,
      "ify": 8491,
      "Ġgets": 8492,
      "Ġtyp": 8493,
      "Ġterrorism": 8494,
      "Ġfelt": 8495,
      "uting": 8496,
      "Ġpenser": 8497,
      "Ġdamage": 8498,
      "ĠBudget": 8499,
      "quar": 8500,
      "ppe": 8501,
      "avons": 8502,
      "Ġannounced": 8503,
      "undred": 8504,
      "Ġrunning": 8505,
      "cuse": 8506,
      "ĠGreat": 8507,
      "tual": 8508,
      "Ġtrafic": 8509,
      "Ġobtain": 8510,
      "Ġbuilt": 8511,
      "ĠSpain": 8512,
      "________________________________": 8513,
      "ĠFre": 8514,
      "Ġoffrir": 8515,
      "tionnel": 8516,
      "Ġplanned": 8517,
      "76": 8518,
      "Britannique": 8519,
      "Ġunemploy": 8520,
      "tables": 8521,
      "ĠTH": 8522,
      "ĠprocÃ©der": 8523,
      "Ġ1980": 8524,
      "ĠrÃ©gionale": 8525,
      "Ġillustr": 8526,
      "Ġcompletely": 8527,
      "Trans": 8528,
      "ĠAsia": 8529,
      "ĠKosovo": 8530,
      "tiers": 8531,
      "Ġrein": 8532,
      "cie": 8533,
      "Ġseason": 8534,
      "istant": 8535,
      "pring": 8536,
      "Ġincom": 8537,
      "Ġcentury": 8538,
      "Ġdisting": 8539,
      "Ġwaiting": 8540,
      "Ġexclusive": 8541,
      "Ġconduite": 8542,
      "ĠBos": 8543,
      "Ġappell": 8544,
      "oyer": 8545,
      "Ġpoly": 8546,
      "Ġcash": 8547,
      "Ġmener": 8548,
      "ĠtÃ´t": 8549,
      "Ġwood": 8550,
      "Ġnouvel": 8551,
      "Ġones": 8552,
      "ĠLand": 8553,
      "ĠPark": 8554,
      "ĠWestern": 8555,
      "ĠtÃ©lÃ©vision": 8556,
      "Ġfid": 8557,
      "Ġrecueill": 8558,
      "Ġurban": 8559,
      "Ġcomponents": 8560,
      "Ġexpenditure": 8561,
      "85": 8562,
      "urrent": 8563,
      "Ġlines": 8564,
      "ett": 8565,
      "Ġappe": 8566,
      "Ġapporter": 8567,
      "Inde": 8568,
      "Ġnotification": 8569,
      "Ġrob": 8570,
      "ĠvÃ©hicule": 8571,
      "--------": 8572,
      "DS": 8573,
      "Ġfirm": 8574,
      "Ġbonnes": 8575,
      "ĠCer": 8576,
      "ĠmodalitÃ©s": 8577,
      "Op": 8578,
      "ĠmÃ©l": 8579,
      "raction": 8580,
      "ĠPAR": 8581,
      "Ġsave": 8582,
      "Inter": 8583,
      "Ġconvainc": 8584,
      "Ġreconnaissance": 8585,
      "VoilÃł": 8586,
      "oring": 8587,
      "Ã´me": 8588,
      "ariats": 8589,
      "Ġcommuniquer": 8590,
      "ĠStand": 8591,
      "Ġsujets": 8592,
      "ĠSchool": 8593,
      "DR": 8594,
      "rets": 8595,
      "ussels": 8596,
      ".Â»": 8597,
      "orer": 8598,
      "ala": 8599,
      "Ġgreen": 8600,
      "ĠOK": 8601,
      "Ġ54": 8602,
      "Ġfournit": 8603,
      "Ġcandidates": 8604,
      "ĠsoulignÃ©": 8605,
      "Ġsurpr": 8606,
      "Ġshared": 8607,
      "ĠYukon": 8608,
      "Ġfloor": 8609,
      "ga": 8610,
      "ĠJud": 8611,
      "grad": 8612,
      "ystÃ©": 8613,
      "Ġpuissent": 8614,
      "ĠdÃ©tails": 8615,
      "Ġconsumption": 8616,
      "Ġdrugs": 8617,
      "Ġmi": 8618,
      "Ġdestro": 8619,
      "Ġpartis": 8620,
      "Ġresulting": 8621,
      "Ob": 8622,
      "Ġsomme": 8623,
      "ĠextÃ©rie": 8624,
      "Ġcommentaires": 8625,
      "inary": 8626,
      "adap": 8627,
      "oster": 8628,
      "ĠFrank": 8629,
      "Ã®t": 8630,
      "Ġglobale": 8631,
      "ĠdiversitÃ©": 8632,
      "making": 8633,
      "Ġdistrict": 8634,
      "Pa": 8635,
      "ĠEqu": 8636,
      "Ġmaritime": 8637,
      "Ġorganized": 8638,
      "ĠdÃ©couver": 8639,
      "Ġprolong": 8640,
      "Ġyes": 8641,
      "ĠMet": 8642,
      "Ġdoub": 8643,
      "Ġcontamin": 8644,
      "raining": 8645,
      "Ġfishing": 8646,
      "med": 8647,
      "ĠdÃ©rou": 8648,
      "Ġcomprends": 8649,
      "Ouais": 8650,
      "Ġdrive": 8651,
      "ICEF": 8652,
      "anish": 8653,
      "Ġwal": 8654,
      "Ġwitness": 8655,
      "Ġforg": 8656,
      "Ġminister": 8657,
      "useum": 8658,
      "ĠutilisÃ©e": 8659,
      "Ã¦": 8660,
      "Ġfuel": 8661,
      "ĠÃ©valuer": 8662,
      "Ġplants": 8663,
      "ĠFOR": 8664,
      "ĠChin": 8665,
      "Ġsignature": 8666,
      "Ġeffectively": 8667,
      "Ġaffirm": 8668,
      "ruits": 8669,
      "ĠGrand": 8670,
      "Ġsumm": 8671,
      "ĠTerre": 8672,
      "Ġmob": 8673,
      "rai": 8674,
      "stat": 8675,
      "ĠDeclaration": 8676,
      "Ġalleg": 8677,
      "itim": 8678,
      "ĠHam": 8679,
      "Ġentier": 8680,
      "ĠnuclÃ©aires": 8681,
      "PE": 8682,
      "point": 8683,
      "ĠBull": 8684,
      "Ġ400": 8685,
      "ĠinfÃ©rie": 8686,
      "ĠPrime": 8687,
      "VE": 8688,
      "you": 8689,
      "Ġstocks": 8690,
      "Ġregards": 8691,
      "Ġallows": 8692,
      "Voici": 8693,
      "Ġsuppose": 8694,
      "Ġseek": 8695,
      "sibilitÃ©": 8696,
      "hington": 8697,
      "CI": 8698,
      "Ġtrim": 8699,
      "tail": 8700,
      "Ġneuf": 8701,
      "tically": 8702,
      "ĠHel": 8703,
      "ĠLake": 8704,
      "augmentation": 8705,
      "ĠForeign": 8706,
      "Ġdiagnos": 8707,
      "Ġahead": 8708,
      "elier": 8709,
      "ormais": 8710,
      "Ġdouan": 8711,
      "Ġprochain": 8712,
      "Ġhusband": 8713,
      "Ġ88": 8714,
      "Ġpreparation": 8715,
      "Ġlength": 8716,
      "Ġfear": 8717,
      "Ġelections": 8718,
      "take": 8719,
      "Ġallem": 8720,
      "ĠLE": 8721,
      "appar": 8722,
      "isez": 8723,
      "Ġsupports": 8724,
      "ĠPrin": 8725,
      "Ġcultures": 8726,
      "FA": 8727,
      "ford": 8728,
      "itive": 8729,
      "Ġhein": 8730,
      "Ġflu": 8731,
      "Ġfournisseurs": 8732,
      "hol": 8733,
      "Ġtomb": 8734,
      "Ġparticuliers": 8735,
      "ĠÃĩÃ¡Ã": 8736,
      "cool": 8737,
      "Ġmanger": 8738,
      "role": 8739,
      "Ġentrer": 8740,
      "Ġagency": 8741,
      "Ġbienn": 8742,
      "ĠfondÃ©e": 8743,
      "ĠtÃ¢ches": 8744,
      "nÃ©s": 8745,
      "ĠAM": 8746,
      "Ġshot": 8747,
      "minal": 8748,
      "ractions": 8749,
      "ĠconsidÃ©rÃ©": 8750,
      "ĠbÃ©bÃ©": 8751,
      "uÃ©s": 8752,
      "za": 8753,
      "Ġtask": 8754,
      "Ġfaute": 8755,
      "Ġdiam": 8756,
      "ĠstabilitÃ©": 8757,
      "Ġ150": 8758,
      "ĠfranÃ§aise": 8759,
      "OK": 8760,
      "eds": 8761,
      "Ġras": 8762,
      "ĠprocÃ¨s": 8763,
      "Ġthanks": 8764,
      "onneur": 8765,
      "ĠNews": 8766,
      "organisme": 8767,
      "ĠprotÃ©g": 8768,
      "Ġenseign": 8769,
      "apprentissage": 8770,
      "mÃ©diaire": 8771,
      "LA": 8772,
      "Ġeight": 8773,
      "ĠrÃ©du": 8774,
      "entrer": 8775,
      "Ġcontenant": 8776,
      "ĠmÃ©decin": 8777,
      "Ġgagn": 8778,
      "ĠWith": 8779,
      "Ġcombien": 8780,
      "Ġpara": 8781,
      "ĠdonnÃ©e": 8782,
      "veloppement": 8783,
      "Ġhighest": 8784,
      "Ġsavais": 8785,
      "ĠCongo": 8786,
      "Ġguarantee": 8787,
      "Ġvitesse": 8788,
      "riage": 8789,
      "Ġplat": 8790,
      "ĠprÃ©f": 8791,
      "Ġlinks": 8792,
      "Ġresol": 8793,
      "Ġuser": 8794,
      "Ġotherwise": 8795,
      "Ġcooper": 8796,
      "itÃ©es": 8797,
      "Ġmedium": 8798,
      "ĠdÃ©clarations": 8799,
      "Ġeducational": 8800,
      "ĠRich": 8801,
      "ĠrÃ©ussi": 8802,
      "extÃ©rieur": 8803,
      "Ġpractical": 8804,
      "ĠTransport": 8805,
      "Ã©tudes": 8806,
      "Ġhotel": 8807,
      "87": 8808,
      "ĠDay": 8809,
      "Ġconfront": 8810,
      "ĠMinisters": 8811,
      "ĠCorporation": 8812,
      "Ġprogrammation": 8813,
      "oux": 8814,
      "ĠPC": 8815,
      "Ġcommunes": 8816,
      "Ġveulent": 8817,
      "ĠNorthern": 8818,
      "Ġsleep": 8819,
      "hÃ´": 8820,
      "Ġvent": 8821,
      "Ġenl": 8822,
      "Ġaccounts": 8823,
      "Ġabord": 8824,
      "Ġlocale": 8825,
      "ĠmodifiÃ©": 8826,
      "ĠÃ©coles": 8827,
      "Ġreleased": 8828,
      "Col": 8829,
      "Ã©riques": 8830,
      "ĠassociÃ©s": 8831,
      "Ġdrink": 8832,
      "examiner": 8833,
      "Ġlegislative": 8834,
      "Ġdaily": 8835,
      "ĠDen": 8836,
      "Ġcoff": 8837,
      "ĠGuide": 8838,
      "ĠantÃ©rie": 8839,
      "lymp": 8840,
      "Ġparagraphes": 8841,
      "approche": 8842,
      "Ġhearing": 8843,
      "Ġsouhaite": 8844,
      "ĠProtocole": 8845,
      "Voir": 8846,
      "hum": 8847,
      "activitÃ©s": 8848,
      "ĠprÃ©venir": 8849,
      "force": 8850,
      "Ã©mie": 8851,
      "ĠWhy": 8852,
      "anmoins": 8853,
      "Ġvilles": 8854,
      "ĠvÃ©rifier": 8855,
      "PrÃ©": 8856,
      "Ġdaughter": 8857,
      "pped": 8858,
      "Ġavoc": 8859,
      "Ã©limination": 8860,
      "Ġnegative": 8861,
      "Ġsister": 8862,
      "letin": 8863,
      "ĠST": 8864,
      "Ġexhib": 8865,
      "ĠchaÃ®": 8866,
      "Ġgraves": 8867,
      "ĠStrategy": 8868,
      "BC": 8869,
      "ĠMain": 8870,
      "ĠHaut": 8871,
      "Ġhumain": 8872,
      "ye": 8873,
      "Ġmerci": 8874,
      "Ġimpacts": 8875,
      "ĠprÃ©fÃ©r": 8876,
      "Ġcommitments": 8877,
      "ĠsupplÃ©mentaire": 8878,
      "Ġcondamn": 8879,
      "List": 8880,
      "reland": 8881,
      "Ġquan": 8882,
      "ĠIP": 8883,
      "ĠHome": 8884,
      "ought": 8885,
      "Ġdifferences": 8886,
      "Ġagriculture": 8887,
      "Ġtesting": 8888,
      "ĠprÃ©parer": 8889,
      "Ġconsulter": 8890,
      "lantique": 8891,
      "Im": 8892,
      "anie": 8893,
      "Ġtrack": 8894,
      "Ġkg": 8895,
      "Association": 8896,
      "Ġutilisant": 8897,
      "Ġlicense": 8898,
      "Ġextraordin": 8899,
      "Ġannexe": 8900,
      "icide": 8901,
      "Ġdump": 8902,
      "ĠHong": 8903,
      "Ġdomin": 8904,
      "Ġfaisait": 8905,
      "ĠGuid": 8906,
      "Ġconstant": 8907,
      "Ġwriting": 8908,
      "Ġenfin": 8909,
      "Ġenvers": 8910,
      "Ġaccommod": 8911,
      "Ġ49": 8912,
      "Ġpuisque": 8913,
      "Ġmunicipal": 8914,
      "DÃ©c": 8915,
      "Ġcot": 8916,
      "Ġru": 8917,
      "ĠNation": 8918,
      "ĠparticipÃ©": 8919,
      "Ġvirus": 8920,
      "RÃ©s": 8921,
      "wood": 8922,
      "ened": 8923,
      "angl": 8924,
      "ĠWater": 8925,
      "ĠAtlantic": 8926,
      "gyp": 8927,
      "Ġreplaced": 8928,
      "Ġquickly": 8929,
      "ystÃ©m": 8930,
      "Ġhuh": 8931,
      "ĠCamp": 8932,
      "ĠPM": 8933,
      "ĠPakistan": 8934,
      "Ġsurr": 8935,
      "Ġformulaire": 8936,
      "ugg": 8937,
      "Mme": 8938,
      "Ġmoteur": 8939,
      "Ġconsci": 8940,
      "ĠCommunications": 8941,
      "Ġactuel": 8942,
      "Ġgovernance": 8943,
      "expression": 8944,
      "Ġdessus": 8945,
      "Ġcatast": 8946,
      "human": 8947,
      "orage": 8948,
      "ivil": 8949,
      "Ġdevient": 8950,
      "Ġscreen": 8951,
      "arily": 8952,
      "aly": 8953,
      "Ġcoeur": 8954,
      "Ġtelevision": 8955,
      "lÃ©ch": 8956,
      "ĠdÃ©posÃ©": 8957,
      "Ġanaly": 8958,
      "Ġguidance": 8959,
      "building": 8960,
      "Ġbran": 8961,
      "Ġchair": 8962,
      "Ġ51": 8963,
      "ĠdestinÃ©s": 8964,
      "Ġreasonable": 8965,
      "nergy": 8966,
      "ĠIndian": 8967,
      "pour": 8968,
      "opie": 8969,
      "ĠVancouver": 8970,
      "Ġinvited": 8971,
      "oncer": 8972,
      "ĠÃ©limin": 8973,
      "endix": 8974,
      "ĠTax": 8975,
      "comp": 8976,
      "ĠrÃ©vision": 8977,
      "ĠÃ©chÃ©ant": 8978,
      "aven": 8979,
      "level": 8980,
      "Ġinn": 8981,
      "ĠPays": 8982,
      "ership": 8983,
      "Ġdisapp": 8984,
      "Ã´ts": 8985,
      "Ġaffich": 8986,
      "Ġliter": 8987,
      "lebr": 8988,
      "Ġcontaining": 8989,
      "ĠIr": 8990,
      "opÃ©ration": 8991,
      "Only": 8992,
      "Ġmatern": 8993,
      "ĠIsland": 8994,
      "Ġjoue": 8995,
      "Ġobserved": 8996,
      "Many": 8997,
      "cipient": 8998,
      "Ġparticipant": 8999,
      "Ġaccompagn": 9000,
      "Two": 9001,
      "Ġconcours": 9002,
      "79": 9003,
      "ensions": 9004,
      "ĠMiss": 9005,
      "Ġaccr": 9006,
      "lementation": 9007,
      "Ġinstead": 9008,
      "Ġcontinent": 9009,
      "ERS": 9010,
      "Ġpouvant": 9011,
      "Ã©rables": 9012,
      "ĠCompany": 9013,
      "delÃł": 9014,
      "Ġmobile": 9015,
      "oes": 9016,
      "rey": 9017,
      "Ã¨tre": 9018,
      "ĠGl": 9019,
      "merg": 9020,
      "Ġdepos": 9021,
      "ĠdÃ©plac": 9022,
      "UD": 9023,
      "dans": 9024,
      "Ġhundred": 9025,
      "Ġchec": 9026,
      "Ġadopt": 9027,
      "Ġamendment": 9028,
      "EE": 9029,
      "QUE": 9030,
      "Ġrecovery": 9031,
      "Ġvolon": 9032,
      "Ġfiled": 9033,
      "ĠdÃ©mocratie": 9034,
      "Ġvideo": 9035,
      "aled": 9036,
      "ĠNouvelle": 9037,
      "Ġdevra": 9038,
      "Ġchoisir": 9039,
      "?\"": 9040,
      "DÃ©s": 9041,
      "tiÃ¨re": 9042,
      "Ġving": 9043,
      "Ġspecifically": 9044,
      "Avant": 9045,
      "Ġdevelopments": 9046,
      "ĠcrÃ©dits": 9047,
      "Ġadvance": 9048,
      "Ġchoose": 9049,
      "Ġforget": 9050,
      "ĠDi": 9051,
      "olesc": 9052,
      "Ġpattern": 9053,
      "Ġpoursuiv": 9054,
      "Certains": 9055,
      "Ġchimiques": 9056,
      "ua": 9057,
      "ago": 9058,
      "ĠDom": 9059,
      "ĠdÃ©pÃ´t": 9060,
      "Ġrecommendation": 9061,
      "tagne": 9062,
      "65": 9063,
      "MS": 9064,
      "lim": 9065,
      "life": 9066,
      "Ġvital": 9067,
      "appu": 9068,
      "Ġpasseng": 9069,
      "Ġkept": 9070,
      "ĠdiffÃ©rence": 9071,
      "appliquer": 9072,
      "Ġinvolving": 9073,
      "ĠrÃ©alisÃ©s": 9074,
      "Ġcomponent": 9075,
      "cussions": 9076,
      "osc": 9077,
      "ĠapprÃ©ci": 9078,
      "Ġsexe": 9079,
      "Ġconsumer": 9080,
      "Ġtendance": 9081,
      "ĠGeorge": 9082,
      "Ġplaisir": 9083,
      "FOR": 9084,
      "WG": 9085,
      "Ġbande": 9086,
      "Ġboul": 9087,
      "Ġnames": 9088,
      "Ġexec": 9089,
      "Ġconscience": 9090,
      "Ġassure": 9091,
      "Ġexpenses": 9092,
      "Ġvoulait": 9093,
      "Ġstatistics": 9094,
      "Ġcustomers": 9095,
      "Ġours": 9096,
      "Ġpose": 9097,
      "Ġpeoples": 9098,
      "Ġusage": 9099,
      "Ġapplies": 9100,
      "Ġindicators": 9101,
      "Ġslow": 9102,
      "Ġmechanism": 9103,
      "Ġcontacts": 9104,
      ".).": 9105,
      "Such": 9106,
      "bal": 9107,
      "Ġcodes": 9108,
      "Ġrencontre": 9109,
      "ĠTechnology": 9110,
      "Ġhurt": 9111,
      "achat": 9112,
      "Ġstip": 9113,
      "Ġofficiel": 9114,
      "Ġquarter": 9115,
      "judice": 9116,
      "iot": 9117,
      "Ġmonsieur": 9118,
      "ĠaugmentÃ©": 9119,
      "IPO": 9120,
      "iend": 9121,
      "ws": 9122,
      "west": 9123,
      "agÃ©": 9124,
      "Ġmoder": 9125,
      "Ġrevoir": 9126,
      "Ġgarder": 9127,
      "CS": 9128,
      "Tem": 9129,
      "Ġcuis": 9130,
      "ĠPage": 9131,
      "oday": 9132,
      "Ġmoving": 9133,
      "ologies": 9134,
      "Ġgouvernance": 9135,
      "Ġhumanitaire": 9136,
      "ĠHaiti": 9137,
      "MI": 9138,
      "Ġther": 9139,
      "asc": 9140,
      "ĠVice": 9141,
      "ounds": 9142,
      "Ġrembour": 9143,
      "Ġexploit": 9144,
      "ĠderriÃ¨re": 9145,
      "Ġintellectuelle": 9146,
      "Take": 9147,
      "ĠWind": 9148,
      "aceu": 9149,
      "Ġbusinesses": 9150,
      "Ġsignificantly": 9151,
      "Ġstarting": 9152,
      "Ġsauve": 9153,
      "uxelles": 9154,
      "Ġstrengthening": 9155,
      "Ġcomportement": 9156,
      "ĠmÃ©n": 9157,
      "ĠPeter": 9158,
      "Ġvoit": 9159,
      "exposition": 9160,
      "Ġliquid": 9161,
      "gi": 9162,
      "ĠÃ©g": 9163,
      "ĠGreen": 9164,
      "Ġuses": 9165,
      "ĠsiÃ¨ge": 9166,
      "ĠreprÃ©sentent": 9167,
      "Ġbomb": 9168,
      "unte": 9169,
      "Ġaccur": 9170,
      "ĠMembers": 9171,
      "etherlands": 9172,
      "ĠPourquoi": 9173,
      "Ã©min": 9174,
      "Ġmad": 9175,
      "trent": 9176,
      "Ġ53": 9177,
      "ographic": 9178,
      "Ġclasses": 9179,
      "Ġnetworks": 9180,
      "ĠtÃ©lÃ©ph": 9181,
      "Spec": 9182,
      "cons": 9183,
      "jan": 9184,
      "Ġdates": 9185,
      "Ġborn": 9186,
      "Ġrur": 9187,
      "oirs": 9188,
      "Ġcartes": 9189,
      "ĠHey": 9190,
      "Ġadministratives": 9191,
      "ĠSwed": 9192,
      "500": 9193,
      "Ori": 9194,
      "Ġwhe": 9195,
      "ĠCount": 9196,
      "Ġcommerciale": 9197,
      "inions": 9198,
      "lets": 9199,
      "Ġexces": 9200,
[...]
